<pad>	0
<unk>	0
[CLS]	0
[SEP]	0
[MASK]	0
(	0
)	0
"	0
-	0
.	0
–	0
£	0
€	0
の	-2.73581
、	-3.03416
。	-3.31037
▁	-3.45957
は	-4.02743
が	-4.37314
・	-4.45581
年	-4.55502
に	-4.66961
を	-4.69113
で	-4.84728
と	-4.90862
」	-5.16483
月	-5.31223
「	-5.32103
2	-5.62045
1	-5.62267
から	-5.69222
や	-5.72237
である	-5.7578
3	-5.82848
も	-5.8325
した	-5.86223
日	-5.88085
し	-5.90515
』	-5.98428
として	-6.04434
4	-6.1028
する	-6.14789
では	-6.20958
『	-6.25578
5	-6.34957
た	-6.38407
には	-6.50619
6	-6.55395
年に	-6.61963
7	-6.62855
など	-6.63489
10	-6.65049
8	-6.68678
▁また	-6.72756
という	-6.75156
9	-6.78213
された	-6.78863
大	-6.80693
る	-6.81361
第	-6.81715
して	-6.828
な	-6.8497
している	-6.85983
ス	-6.87501
て	-6.88843
人	-6.90087
12	-6.92879
その	-6.97703
ている	-6.98347
日に	-6.9965
11	-7.01811
市	-7.04615
による	-7.10416
:	-7.11621
となった	-7.12561
によって	-7.13009
中	-7.13228
により	-7.1496
であり	-7.16583
され	-7.1794
▁この	-7.18744
であった	-7.19744
s	-7.22807
この	-7.23448
一	-7.24155
町	-7.25189
山	-7.25485
か	-7.29398
本	-7.32143
名	-7.33756
ため	-7.34982
後	-7.35545
へ	-7.36264
、「	-7.36925
m	-7.37054
ア	-7.39023
15	-7.39401
ド	-7.39447
ズ	-7.39796
日本	-7.39836
,	-7.39919
となる	-7.40372
がある	-7.40842
より	-7.41374
上	-7.41603
回	-7.41676
子	-7.41931
される	-7.41938
り	-7.43161
国	-7.43202
a	-7.43349
ト	-7.45328
川	-7.46526
まで	-7.47814
20	-7.4785
▁しかし	-7.48029
ク	-7.48243
ラ	-7.50939
昭和	-7.51365
線	-7.51464
への	-7.51929
新	-7.53726
駅	-7.5404
長	-7.54755
部	-7.57202
ていた	-7.58303
17	-7.58716
い	-7.59098
されている	-7.59615
だった	-7.59649
家	-7.60272
島	-7.61233
性	-7.61395
ナ	-7.61501
16	-7.61532
月に	-7.61767
において	-7.61803
元	-7.61848
的な	-7.61898
カ	-7.63136
者	-7.63243
郡	-7.64747
していた	-7.6515
法	-7.65426
号	-7.65576
30	-7.67506
18	-7.67998
にも	-7.69158
などの	-7.6919
/	-7.69792
ら	-7.69826
▁『	-7.70382
水	-7.70672
分	-7.70791
および	-7.71777
マ	-7.72093
道	-7.72694
同	-7.73173
高	-7.73282
下	-7.73557
でも	-7.75623
田	-7.75799
戦	-7.75854
三	-7.76203
14	-7.76263
リ	-7.76868
的	-7.77321
東	-7.77332
村	-7.77463
く	-7.77815
タ	-7.78004
数	-7.7824
13	-7.78417
ル	-7.78431
となり	-7.78768
型	-7.7942
前	-7.81597
会	-7.81974
地	-7.82126
小	-7.82153
西	-7.82189
南	-7.82384
コ	-7.82851
時	-7.83784
にある	-7.8434
b	-7.84921
内	-7.85181
年には	-7.85294
大学	-7.85654
c	-7.85778
お	-7.85822
▁なお	-7.85869
み	-7.86025
つ	-7.86109
化	-7.86177
=	-7.87213
ム	-7.87619
き	-7.87898
手	-7.88443
デ	-7.88756
州	-7.88844
形	-7.89417
位	-7.89759
生	-7.90087
平成	-7.9014
における	-7.90799
バ	-7.90821
約	-7.90947
こと	-7.92111
神	-7.92557
ノ	-7.92918
北	-7.93119
った	-7.93653
サ	-7.94944
ダ	-7.95188
▁その後	-7.96726
レ	-7.96978
映画	-7.97336
ており	-7.97534
オ	-7.98279
となっている	-7.98407
f	-7.99193
19	-7.99574
式	-8.00079
フ	-8.0036
について	-8.00508
25	-8.007
系	-8.00881
城	-8.01055
王	-8.01227
等	-8.01256
年から	-8.01453
作品	-8.01514
t	-8.01773
エ	-8.0231
とは	-8.02553
ロ	-8.02882
d	-8.03527
マン	-8.04242
二	-8.0426
放送	-8.04361
語	-8.04456
代	-8.05767
シ	-8.06122
全	-8.06165
0	-8.06209
金	-8.06737
用	-8.07446
東京	-8.07559
日本の	-8.07598
にて	-8.07925
21	-8.08144
物	-8.08719
区	-8.09039
原	-8.09509
イ	-8.10082
ジ	-8.10151
す	-8.10804
軍	-8.1107
目	-8.11123
n	-8.11273
後に	-8.11399
車	-8.12031
ティ	-8.12212
24	-8.12326
▁「	-8.12907
外	-8.1298
また	-8.13082
野	-8.13115
木	-8.13307
文	-8.13637
石	-8.13938
力	-8.14219
勝	-8.14944
キ	-8.1495
g	-8.15425
リー	-8.15642
e	-8.15672
世界	-8.15705
チ	-8.15827
ニ	-8.16119
寺	-8.16179
だ	-8.16347
光	-8.16418
ザ	-8.17036
ガ	-8.1738
ない	-8.1755
正	-8.18039
社	-8.18265
行	-8.18762
海	-8.18823
22	-8.19153
23	-8.19282
地域	-8.19482
機	-8.19512
う	-8.19559
があり	-8.19953
p	-8.19979
作	-8.20111
点	-8.20915
平	-8.2112
ン	-8.21679
活動	-8.22315
学	-8.22404
ブ	-8.22461
ミ	-8.22555
現	-8.23128
r	-8.23902
ネ	-8.23972
県	-8.24149
ディ	-8.24165
って	-8.24506
番組	-8.25129
x	-8.25991
所	-8.2605
時間	-8.26178
面	-8.26223
見	-8.26224
とする	-8.265
世	-8.26623
さ	-8.26779
こ	-8.26849
曲	-8.26927
プ	-8.26981
ツ	-8.27189
旧	-8.27435
28	-8.27551
シリーズ	-8.27589
版	-8.27612
26	-8.28376
万	-8.28447
事	-8.29234
グ	-8.29669
27	-8.2975
公	-8.29918
のみ	-8.29998
h	-8.30478
ゲーム	-8.306
、『	-8.30964
鉄道	-8.31193
及び	-8.31371
明治	-8.31372
チーム	-8.31501
出	-8.32337
いた	-8.32352
話	-8.32412
に対して	-8.32529
書	-8.32615
k	-8.32772
29	-8.32792
和	-8.32805
度	-8.33377
」「	-8.34038
できる	-8.34452
場	-8.34466
局	-8.34542
セ	-8.34604
パ	-8.34724
両	-8.34747
馬	-8.35211
ハ	-8.35331
アルバム	-8.35417
各	-8.35585
になった	-8.35773
選手	-8.35914
間	-8.35931
とともに	-8.36088
立	-8.36294
メ	-8.36698
義	-8.3676
音楽	-8.37189
無	-8.37401
明	-8.37563
つの	-8.37775
イン	-8.38077
期	-8.38125
を持つ	-8.38255
風	-8.38405
代表	-8.38407
モ	-8.38443
v	-8.38953
シュ	-8.39001
とも	-8.39022
体	-8.39037
重	-8.39193
になる	-8.39435
j	-8.39527
監督	-8.39757
ある	-8.39821
研究	-8.39933
▁その	-8.39938
人の	-8.40061
不	-8.40092
橋	-8.40146
トン	-8.41271
ウ	-8.41327
テ	-8.41615
頭	-8.41731
開発	-8.42574
カー	-8.42777
口	-8.42782
方	-8.42891
バー	-8.43459
ビ	-8.43508
l	-8.43552
バス	-8.43853
w	-8.43983
アメリカ	-8.44049
現在の	-8.44471
台	-8.44608
船	-8.44873
と呼ばれる	-8.45387
事業	-8.45512
級	-8.45576
と共に	-8.45685
i	-8.45728
種	-8.45798
宮	-8.45871
美	-8.45885
すると	-8.45926
学校	-8.46034
同年	-8.46139
白	-8.4692
当時	-8.46984
事件	-8.47202
については	-8.47254
着	-8.47293
ラー	-8.47338
ケ	-8.4748
50	-8.48568
ま	-8.48597
リーグ	-8.48598
o	-8.48678
プロ	-8.48775
国際	-8.48911
賞	-8.4912
多くの	-8.49135
教育	-8.49239
初	-8.49252
または	-8.49343
31	-8.49522
色	-8.49949
y	-8.49987
地区	-8.50579
に対する	-8.51165
ゴ	-8.5154
主	-8.51609
門	-8.51651
的に	-8.52038
氏	-8.52224
文化	-8.52244
100	-8.52391
権	-8.52882
心	-8.5289
問題	-8.5315
天	-8.53189
谷	-8.53555
地方	-8.53737
cm	-8.53816
40	-8.53876
直	-8.53956
ター	-8.53964
システム	-8.54016
流	-8.54522
め	-8.54592
室	-8.54746
しており	-8.54748
屋	-8.55147
気	-8.55206
都市	-8.55433
サン	-8.55711
科	-8.55732
を行う	-8.55828
▁これは	-8.56099
ロー	-8.5618
ラン	-8.56314
されていた	-8.56384
フランス	-8.56446
情報	-8.56577
年間	-8.56656
成	-8.56847
試合	-8.57348
さらに	-8.57463
音	-8.57471
テレビ	-8.57788
安	-8.57866
次	-8.57877
ヤ	-8.58084
通	-8.58131
グループ	-8.58216
花	-8.58477
番	-8.58574
中国	-8.58753
km	-8.58782
ドイツ	-8.58792
ボ	-8.58885
アン	-8.5913
アル	-8.5915
館	-8.59451
他の	-8.60009
計画	-8.60484
といった	-8.60577
制	-8.60918
星	-8.61168
ヒ	-8.61592
に関する	-8.61937
シー	-8.61986
ように	-8.62336
▁同年	-8.62593
院	-8.62777
スト	-8.63228
コン	-8.63297
施設	-8.64068
別	-8.64218
ために	-8.64451
朝	-8.64585
信	-8.64763
中央	-8.65169
があった	-8.6522
論	-8.65742
としては	-8.65749
大会	-8.66066
組織	-8.66184
派	-8.66501
先	-8.66562
ことから	-8.66597
!	-8.66688
真	-8.67461
られた	-8.67609
ー	-8.67698
ことを	-8.67808
座	-8.67953
社会	-8.67961
日から	-8.6847
巻	-8.68624
政	-8.68662
発	-8.68849
だが	-8.68874
ち	-8.68903
店	-8.69041
攻撃	-8.69308
～	-8.69444
技術	-8.69598
ながら	-8.69699
女	-8.6972
女性	-8.69973
総	-8.69986
組	-8.7014
会社	-8.70202
戦争	-8.7044
u	-8.7091
▁ただし	-8.70974
実	-8.70992
特に	-8.70999
井	-8.71021
ず	-8.71032
ではなく	-8.71111
出身	-8.71179
マー	-8.71651
役	-8.71775
リン	-8.71777
時に	-8.72437
'	-8.72456
関係	-8.72541
他	-8.72843
ほか	-8.73077
ほど	-8.73108
丸	-8.73145
ソ	-8.73269
男	-8.73313
大きな	-8.73641
官	-8.73753
センター	-8.73788
史	-8.73826
いる	-8.7427
機能	-8.74375
対	-8.74479
シーズン	-8.74555
ポ	-8.74727
ニー	-8.74788
クラブ	-8.75183
む	-8.75189
を経て	-8.75248
歳	-8.75403
スター	-8.75576
古	-8.75686
のため	-8.75762
運動	-8.7601
もある	-8.76176
え	-8.76226
所属	-8.76248
経済	-8.76258
あ	-8.76281
モデル	-8.76283
歌	-8.76452
を行った	-8.76708
四	-8.7698
とした	-8.77064
清	-8.77184
年まで	-8.77313
のために	-8.7783
とされる	-8.7783
状態	-8.77857
させた	-8.77882
わ	-8.78037
▁さらに	-8.78753
多	-8.79094
それ	-8.79097
尾	-8.79514
武	-8.79798
ものの	-8.79808
ベ	-8.79827
兵	-8.79874
群	-8.80129
エル	-8.80283
円	-8.80335
久	-8.80406
じ	-8.80808
▁第	-8.80833
株式会社	-8.81023
五	-8.81197
条	-8.81217
記録	-8.81362
させる	-8.81656
イギリス	-8.8168
治	-8.81701
▁そして	-8.81867
入	-8.82062
のうち	-8.82076
英	-8.82128
その後	-8.82215
江	-8.82504
後の	-8.82575
場合	-8.82783
を受け	-8.8283
ナー	-8.82937
ダー	-8.83297
ワ	-8.83389
有	-8.83522
▁2010	-8.83797
すること	-8.83959
路線	-8.84003
御	-8.84042
よりも	-8.84121
あるいは	-8.84376
シングル	-8.84382
定	-8.844
車両	-8.84413
を含む	-8.84438
ことが	-8.84531
60	-8.84664
吉	-8.84781
月には	-8.84991
協会	-8.85224
大阪	-8.8539
類	-8.85483
ことで	-8.85511
品	-8.85583
時代	-8.85602
アー	-8.85614
のような	-8.85653
構造	-8.85909
母	-8.86121
っている	-8.86312
校	-8.86355
国家	-8.86517
林	-8.86544
愛	-8.86546
ベル	-8.86597
企業	-8.86851
領	-8.86862
沢	-8.86869
艦	-8.87148
側	-8.87578
全国	-8.87703
例	-8.87911
へと	-8.88187
管理	-8.88231
政府	-8.88346
したが	-8.88392
ソン	-8.88504
松	-8.88568
バンド	-8.88609
んだ	-8.88671
▁of	-8.88845
ピ	-8.88932
生活	-8.88954
民	-8.88993
黒	-8.89016
当時の	-8.89052
なかった	-8.8907
通り	-8.89113
宗	-8.89156
サービス	-8.89172
ファン	-8.89331
よう	-8.89354
空	-8.89424
ペ	-8.89752
一部	-8.89947
道路	-8.90544
八	-8.90698
春	-8.90846
日には	-8.90887
ギ	-8.90994
こう	-8.91046
足	-8.91046
▁the	-8.91078
ジャ	-8.91256
量	-8.91459
調査	-8.91477
様々な	-8.92203
ゲ	-8.92221
▁2011	-8.92396
雄	-8.92411
以上	-8.927
〜	-8.9293
党	-8.93037
中に	-8.93045
ビル	-8.93062
親	-8.93073
敵	-8.93143
津	-8.93288
▁2012	-8.93374
々	-8.93483
第一	-8.93571
字	-8.93887
▁2009	-8.93927
販売	-8.94177
レン	-8.94275
の中で	-8.9465
説	-8.94849
食	-8.94933
建設	-8.94949
高校	-8.95063
▁2008	-8.95132
ヴィ	-8.95297
制作	-8.95329
身	-8.95528
ゼ	-8.95602
人が	-8.95754
相	-8.95766
米	-8.9586
女子	-8.95883
電	-8.96127
死	-8.96208
合	-8.96259
優勝	-8.9632
千	-8.96325
ファ	-8.96453
連	-8.96593
岩	-8.96697
小学校	-8.96731
を受けた	-8.96836
戦闘	-8.96942
▁2014	-8.97041
非	-8.97069
自	-8.97102
表	-8.97464
タイ	-8.97593
員	-8.97615
▁2013	-8.97664
団体	-8.97769
シャ	-8.97887
キャラクター	-8.98162
ば	-8.98405
においては	-8.98428
聖	-8.98467
記	-8.98497
▁2007	-8.98497
80	-8.98524
▁2015	-8.98617
生産	-8.98649
になっている	-8.99127
レース	-8.99129
ヴァ	-8.99165
出場	-8.99246
であったが	-8.99277
▁2016	-8.99513
大正	-8.99638
太	-8.99751
葉	-8.99849
スポーツ	-8.99969
器	-8.99971
カル	-9.00044
ヌ	-9.00075
基	-9.00106
命	-9.0014
場所	-9.0017
ッ	-9.002
ロン	-9.00275
されており	-9.00341
&	-9.00381
再び	-9.00558
カード	-9.00597
角	-9.00693
▁2017	-9.0074
環境	-9.00838
the	-9.00844
波	-9.00891
業	-9.0108
中学校	-9.0112
さん	-9.01128
設計	-9.01171
港	-9.01194
z	-9.01238
隊	-9.01305
デビュー	-9.01322
高等学校	-9.01497
mm	-9.01678
リング	-9.01885
fc	-9.02081
士	-9.02127
夫	-9.02155
製	-9.02263
ガー	-9.0227
職	-9.02341
ホ	-9.0235
ものである	-9.02407
土	-9.02628
達	-9.02635
にあった	-9.02642
だけ	-9.02663
特別	-9.02744
||	-9.02771
湖	-9.02839
レイ	-9.02959
都	-9.03024
委員会	-9.03115
制度	-9.03149
よ	-9.03176
教会	-9.03232
師	-9.03281
根	-9.03347
発売	-9.03596
政治	-9.03715
半	-9.0391
神社	-9.03978
節	-9.03979
独立	-9.04031
左	-9.04068
人間	-9.04152
されて	-9.04154
赤	-9.04202
藩	-9.04215
人物	-9.04338
里	-9.04811
戸	-9.04891
それぞれ	-9.05042
航空	-9.05045
火	-9.05304
海軍	-9.05479
使用	-9.05589
ぎ	-9.05597
利	-9.05671
以降	-9.05807
再	-9.0581
ジョン	-9.05832
知	-9.06022
を務めた	-9.06106
”	-9.06196
同じ	-9.06432
新しい	-9.06444
最初の	-9.06457
になり	-9.06557
イタリア	-9.06769
エン	-9.06799
ヘ	-9.06857
アメリカ合衆国	-9.0703
徳	-9.07166
総合	-9.072
父	-9.07217
ヨーロッパ	-9.07244
広	-9.07408
リア	-9.07416
のように	-9.0743
ホーム	-9.07536
横	-9.07626
▁2006	-9.07927
そして	-9.08014
ご	-9.08038
ような	-9.08061
森	-9.08078
団	-9.0812
之	-9.08124
銀行	-9.08269
ランド	-9.08358
弾	-9.08384
オー	-9.08596
イベント	-9.08597
教	-9.08603
忠	-9.08861
作戦	-9.0891
ること	-9.09023
良	-9.09027
永	-9.09107
機関	-9.09147
生まれ	-9.09351
路	-9.09394
▁2018	-9.09791
産業	-9.09834
右	-9.10328
などで	-9.1039
ロシア	-9.10412
cd	-9.10621
誌	-9.10733
参加	-9.10937
年度	-9.10964
初の	-9.11166
>	-9.11255
に対し	-9.11269
ハイ	-9.11329
のある	-9.11415
一般	-9.11415
たち	-9.11594
これは	-9.11628
編成	-9.11895
状況	-9.12108
部分	-9.12189
タン	-9.12376
エンジン	-9.12394
副	-9.12424
企画	-9.12432
ビー	-9.12455
させ	-9.12599
公園	-9.12677
教授	-9.12733
ガン	-9.12745
th	-9.13042
アニメ	-9.13061
デザイン	-9.13075
を行い	-9.13187
部隊	-9.13287
集	-9.13528
感	-9.13542
せ	-9.13592
しない	-9.13632
▁そのため	-9.13783
紙	-9.13862
あり	-9.13879
層	-9.1391
当	-9.13947
70	-9.14009
スーパー	-9.14127
を中心に	-9.14264
最も	-9.14305
月から	-9.14335
今	-9.14364
っていた	-9.14487
カン	-9.1454
守	-9.14608
サー	-9.1465
会議	-9.14667
ic	-9.14785
フィ	-9.14796
六	-9.14903
翌	-9.14913
熱	-9.1504
ね	-9.15104
st	-9.15171
al	-9.15256
パー	-9.15257
省	-9.15304
契約	-9.15366
京都	-9.15505
主に	-9.15984
自動車	-9.16051
球	-9.16096
ところ	-9.16347
チャ	-9.16354
章	-9.1639
族	-9.16397
表現	-9.16459
jr	-9.16808
堂	-9.16864
バン	-9.16996
マル	-9.17235
鉄	-9.17241
交通	-9.17251
日まで	-9.17337
図	-9.17401
製品	-9.17536
▁a	-9.17579
これ	-9.17589
列車	-9.17624
薬	-9.17705
とし	-9.17762
れ	-9.17834
としている	-9.17845
35	-9.17929
パリ	-9.18135
シン	-9.18194
」、「	-9.18278
などが	-9.18302
声	-9.18345
たい	-9.18389
北海道	-9.18405
悪	-9.18498
結果	-9.18513
利用	-9.18546
2000	-9.18573
はこの	-9.18614
上の	-9.18637
変更	-9.18676
そう	-9.18679
経	-9.18789
条件	-9.18838
によれば	-9.18989
そ	-9.19017
政策	-9.19038
試験	-9.19054
大統領	-9.19182
最大	-9.19201
宇宙	-9.19209
文字	-9.19235
ではない	-9.19279
の一部	-9.19336
られる	-9.19343
によると	-9.19493
板	-9.19813
夜	-9.2018
属	-9.2022
製造	-9.20245
200	-9.20272
進	-9.20343
個	-9.20401
45	-9.20419
コー	-9.2069
▁2005	-9.20767
メンバー	-9.20894
病	-9.2102
▁日本	-9.21093
に位置する	-9.21127
楽	-9.2137
ブル	-9.21407
保	-9.21425
ドラマ	-9.21441
工場	-9.21462
からは	-9.21481
データ	-9.21511
学生	-9.21558
パン	-9.21666
年代	-9.21714
状	-9.21764
経営	-9.21771
七	-9.21824
ラジオ	-9.21916
計	-9.2208
ライブ	-9.22097
け	-9.22287
何	-9.22374
できない	-9.22491
男性	-9.22537
戦で	-9.22612
言語	-9.22771
坂	-9.22863
英語	-9.22976
90	-9.22997
太郎	-9.23013
ぶ	-9.23104
開	-9.23301
陸軍	-9.23465
地球	-9.23568
形式	-9.23575
ハン	-9.23618
能力	-9.23822
公開	-9.23977
世紀	-9.24008
運転	-9.24016
▁一方	-9.24172
製作	-9.24188
付	-9.24252
効果	-9.24341
来	-9.24445
最後の	-9.24463
個人	-9.24536
値	-9.24654
モン	-9.24826
であるが	-9.2495
取り	-9.25028
と同じ	-9.25093
諸	-9.25142
秒	-9.25153
ルー	-9.25218
階	-9.25286
が行われた	-9.25289
輸送	-9.25385
南部	-9.25437
質	-9.25521
演奏	-9.25588
担当	-9.25688
等の	-9.25734
500	-9.25784
未	-9.25807
彼は	-9.25835
前に	-9.25902
小説	-9.25957
警察	-9.25963
に伴い	-9.25993
物語	-9.2602
彼の	-9.26033
開催	-9.2616
青	-9.26244
京	-9.26281
び	-9.26314
草	-9.26576
部門	-9.26642
加	-9.26665
段	-9.26736
開始	-9.26882
出身の	-9.27107
国道	-9.27157
タイトル	-9.2719
最高	-9.27215
行動	-9.27266
以来	-9.27327
界	-9.27745
評価	-9.27752
通信	-9.27802
反	-9.27906
しか	-9.27965
画	-9.27978
ことができる	-9.27982
崎	-9.28
ひ	-9.28033
区間	-9.28102
政権	-9.28148
工業	-9.2815
運営	-9.28207
ライン	-9.28222
ジェ	-9.28239
差	-9.28269
超	-9.2831
スタ	-9.28337
48	-9.2834
フル	-9.28391
便	-9.28429
発表	-9.28441
秀	-9.28445
満	-9.28538
方法	-9.28842
バル	-9.28904
おり	-9.28985
レス	-9.28996
er	-9.29002
デン	-9.2907
ロック	-9.29094
系統	-9.2918
ダム	-9.29421
雑誌	-9.29492
だったが	-9.29535
ネット	-9.29607
玉	-9.29618
上で	-9.29663
産	-9.29781
志	-9.29994
主義	-9.30197
龍	-9.30217
岡	-9.30258
国内	-9.30274
勝利	-9.30331
運用	-9.30398
帯	-9.30427
方式	-9.30428
ニュー	-9.30628
us	-9.307
病院	-9.30735
2010	-9.30762
作家	-9.30846
in	-9.30863
le	-9.30897
が多い	-9.30917
自然	-9.30941
られ	-9.30987
装置	-9.3109
蔵	-9.3114
内の	-9.31164
建築	-9.31307
妻	-9.31358
街	-9.3141
どう	-9.31431
乗	-9.31649
動物	-9.3166
陽	-9.31749
第二	-9.3175
河	-9.31856
映像	-9.31888
枠	-9.31889
人口	-9.3191
クラス	-9.31981
歴史	-9.31988
名は	-9.32115
re	-9.32155
ハー	-9.32188
夏	-9.32215
支援	-9.32257
骨	-9.32378
遠	-9.32431
工事	-9.32458
作曲	-9.32467
伝	-9.32501
家族	-9.32535
アジア	-9.3255
人気	-9.3261
将軍	-9.32655
フリー	-9.32669
ると	-9.32719
アイ	-9.32853
像	-9.32917
異	-9.33128
インド	-9.33142
フェ	-9.33147
自身の	-9.33273
ようになった	-9.33573
登録	-9.33665
レー	-9.33782
ドル	-9.33786
公演	-9.33796
砲	-9.33813
が多く	-9.33825
樹	-9.33881
調	-9.33932
ど	-9.34141
司	-9.34159
▁2019	-9.34179
ジュ	-9.34216
にあたる	-9.34217
ta	-9.34415
店舗	-9.34489
自由	-9.34611
せん	-9.34739
在	-9.34757
越	-9.34776
羽	-9.3479
韓国	-9.34847
トップ	-9.34958
重要な	-9.35118
台湾	-9.35129
細胞	-9.35286
血	-9.35496
なく	-9.35562
メートル	-9.35618
以上の	-9.35624
時代の	-9.35665
以外の	-9.35672
ローマ	-9.35699
以下	-9.35793
設定	-9.35805
ていたが	-9.35843
飛行	-9.35973
とされている	-9.35992
案	-9.36014
32	-9.3615
藤	-9.36189
ん	-9.36225
選挙	-9.36271
祭	-9.36407
艦隊	-9.36491
素	-9.3654
方面	-9.36562
の一つ	-9.36585
構成	-9.36627
源	-9.3667
はその	-9.36679
などを	-9.36735
ヴ	-9.36745
表記	-9.36829
絵	-9.36887
を受けて	-9.37003
佐	-9.37151
関	-9.37255
豊	-9.37311
竹	-9.37429
最	-9.37698
郷	-9.37753
現在	-9.37782
ジー	-9.3784
為	-9.37936
38	-9.37962
指定	-9.37981
▁2004	-9.38103
キー	-9.38138
経験	-9.38153
以下の	-9.38199
現在は	-9.38317
毛	-9.38358
ing	-9.38491
36	-9.38531
ていない	-9.38599
スペイン	-9.38622
時の	-9.38715
いて	-9.38747
用の	-9.38789
私	-9.38863
居	-9.38869
かつて	-9.38895
舞台	-9.39204
初代	-9.39484
br	-9.39503
se	-9.39505
科学	-9.39586
跡	-9.39615
ろ	-9.39639
率	-9.39648
漫画	-9.39681
陣	-9.39689
ライ	-9.39704
ツアー	-9.39778
向け	-9.39821
時期	-9.39843
塩	-9.39881
予定	-9.39952
秋	-9.40035
たが	-9.40134
中の	-9.40148
キン	-9.40154
出演	-9.40189
co	-9.40215
せず	-9.40356
新聞	-9.40453
っ	-9.4057
もあり	-9.40627
兼	-9.40646
+	-9.40666
ほぼ	-9.40675
2007	-9.40704
2008	-9.40849
ニューヨーク	-9.40894
q	-9.41066
されていない	-9.41078
条約	-9.41261
▁同	-9.41429
対応	-9.41674
2009	-9.4178
幸	-9.41781
研究所	-9.41802
ふ	-9.41807
批判	-9.41843
to	-9.41966
渡	-9.42025
増	-9.42044
でもある	-9.42122
万円	-9.42138
九州	-9.42322
漢	-9.4234
市民	-9.42429
なる	-9.42472
スタジオ	-9.42488
事故	-9.42489
ステージ	-9.42493
2011	-9.42532
ガス	-9.42571
北部	-9.42606
作業	-9.42674
kg	-9.42728
輪	-9.42741
酒	-9.42765
低	-9.42787
強	-9.42806
入り	-9.42824
十	-9.42897
nhk	-9.42931
国民	-9.43112
のための	-9.43141
▁17	-9.43166
ーン	-9.43198
市立	-9.43361
内容	-9.43458
ック	-9.4349
こともある	-9.43559
自ら	-9.43573
ユ	-9.4373
客	-9.43732
34	-9.43795
ことがある	-9.438
トリ	-9.43813
していたが	-9.44011
浦	-9.44137
張	-9.44166
営業	-9.44174
好	-9.44183
帝国	-9.442
彦	-9.44208
場合は	-9.44254
帝	-9.443
ポイント	-9.44358
残	-9.44514
卒業	-9.44521
目的	-9.44681
席	-9.44719
市場	-9.44822
極	-9.44841
“	-9.44918
ch	-9.44981
走	-9.45051
行政	-9.45289
管	-9.45321
対象	-9.45479
込み	-9.45479
ロンドン	-9.45552
これを	-9.45647
33	-9.45673
海外	-9.4577
初めて	-9.458
撮影	-9.45863
宿	-9.45945
幅	-9.45956
高い	-9.46
→	-9.46041
雲	-9.46048
37	-9.46068
ぐ	-9.4608
na	-9.46153
実験	-9.46175
整備	-9.46181
新たな	-9.46184
出版	-9.4624
ホール	-9.46256
後は	-9.46284
解	-9.463
▁※	-9.46323
裏	-9.46363
編	-9.46373
軍事	-9.46405
助	-9.46543
宝	-9.46648
トラ	-9.46689
技	-9.46876
移動	-9.46907
記念	-9.46928
市の	-9.46934
空港	-9.46975
▁特に	-9.46988
展開	-9.47074
議会	-9.4714
▁2000	-9.47188
ウィ	-9.47193
仁	-9.47217
2006	-9.47275
横浜	-9.4731
興	-9.47363
学者	-9.4741
ことは	-9.47471
言	-9.47472
▁彼は	-9.47498
敗	-9.47563
de	-9.47621
ザー	-9.47762
▁これらの	-9.47762
娘	-9.47772
かつ	-9.47777
家の	-9.47779
てきた	-9.4789
人は	-9.47892
集団	-9.47949
トゥ	-9.4801
メディア	-9.48113
オブ	-9.48137
子供	-9.48185
2012	-9.48263
周	-9.48267
行為	-9.48282
が存在する	-9.48331
夢	-9.48332
常	-9.48374
劇場	-9.48433
表示	-9.4852
するため	-9.48582
理論	-9.48603
浜	-9.48616
協力	-9.48624
なら	-9.48682
割	-9.48776
メーカー	-9.48835
名古屋	-9.48842
福	-9.48844
列	-9.4888
自分の	-9.4889
香	-9.49015
野球	-9.49018
プロジェクト	-9.49038
チェ	-9.49068
鳥	-9.49141
電子	-9.49148
ed	-9.49153
女優	-9.49161
百	-9.49173
サイ	-9.49197
ノー	-9.49237
ダン	-9.49293
▁m	-9.49316
を見	-9.49351
搭載	-9.49355
銀	-9.49435
額	-9.49445
天皇	-9.49459
料理	-9.49496
電気	-9.49935
紀	-9.50106
年より	-9.50108
詩	-9.5014
少年	-9.50169
オリンピック	-9.50357
業務	-9.50381
バック	-9.50547
植物	-9.50559
湾	-9.50753
提供	-9.50814
するために	-9.50877
la	-9.50998
理	-9.51014
廃止	-9.51111
ロス	-9.51125
隻	-9.51138
付け	-9.51208
ニュース	-9.51247
程度	-9.51247
ホテル	-9.51273
オーストラリア	-9.51274
瀬	-9.51289
マイ	-9.51353
府	-9.51413
これらの	-9.5142
ma	-9.51555
片	-9.51593
内で	-9.51645
かん	-9.51696
タイム	-9.51716
共同	-9.51764
サイト	-9.51787
よく	-9.51795
泉	-9.51814
選	-9.51845
dvd	-9.5187
元年	-9.519
設置	-9.51956
楽曲	-9.52005
時には	-9.52029
変	-9.52054
発行	-9.52077
オリジナル	-9.5215
現代	-9.52167
られている	-9.52269
意	-9.52271
勢力	-9.52388
共和国	-9.5248
軽	-9.52487
処理	-9.52506
形態	-9.52522
取	-9.5258
決定	-9.52601
メイン	-9.52664
男子	-9.52742
文学	-9.52846
反応	-9.52888
味	-9.52904
数は	-9.5295
魚	-9.52955
ブラ	-9.53026
会長	-9.53028
ko	-9.53066
を行っている	-9.53091
期間	-9.53114
統一	-9.53138
にかけて	-9.5316
もので	-9.53163
頼	-9.53337
難	-9.53352
池	-9.53374
合併	-9.53391
観測	-9.53491
打	-9.53517
』『	-9.53542
体制	-9.53544
王国	-9.5355
雨	-9.53556
商	-9.53596
とき	-9.53639
00	-9.53644
▁2003	-9.53652
近	-9.53695
隆	-9.53726
写真	-9.53729
建	-9.53737
比	-9.53856
仏	-9.53856
順	-9.53951
ッツ	-9.53959
者が	-9.53969
にとって	-9.54038
300	-9.54053
倍	-9.54139
防衛	-9.54147
俳優	-9.54161
商品	-9.54177
洋	-9.54204
代目	-9.54214
華	-9.54258
引き	-9.54324
ブランド	-9.54403
直接	-9.54517
霊	-9.54587
テン	-9.54602
39	-9.54622
能	-9.5465
スキー	-9.54653
令	-9.54699
平均	-9.54759
no	-9.54813
縁	-9.54887
するなど	-9.54906
兄弟	-9.54935
異なる	-9.54939
上に	-9.54975
競技	-9.55048
at	-9.55049
民族	-9.55056
制限	-9.55067
機構	-9.55113
際	-9.55121
▁de	-9.55123
転	-9.55295
学園	-9.55323
得点	-9.55324
内に	-9.5537
大型	-9.55414
統合	-9.55422
エネルギー	-9.55446
せい	-9.55468
基準	-9.55489
を持ち	-9.55519
単	-9.5564
庁	-9.5564
伊	-9.55707
域	-9.5576
関連	-9.55823
喜	-9.55952
かい	-9.55955
2013	-9.55976
べ	-9.55988
en	-9.5602
雪	-9.56086
核	-9.56091
専門	-9.56115
拡大	-9.56143
壁	-9.56183
動	-9.56188
ベスト	-9.564
ワン	-9.56409
2014	-9.56485
tv	-9.56542
ビデオ	-9.56573
していない	-9.56603
者は	-9.56682
造	-9.56859
空間	-9.56889
コース	-9.56977
枚	-9.57043
東京都	-9.57175
園	-9.57198
連続	-9.5733
ット	-9.57336
端	-9.57372
▁c	-9.57472
レコード	-9.57494
ヨ	-9.576
ソ連	-9.57747
芸術	-9.57871
西部	-9.57952
断	-9.58038
実施	-9.58038
バイ	-9.58147
歌手	-9.58231
首相	-9.58243
項	-9.58265
リスト	-9.58398
社長	-9.58429
弘	-9.58499
完成	-9.58699
▁in	-9.58756
土地	-9.58778
カップ	-9.58809
仕様	-9.59013
複数の	-9.59074
ライト	-9.59157
格	-9.59165
を務める	-9.59181
持	-9.59183
ディー	-9.59304
勢	-9.59314
革命	-9.59334
盤	-9.59617
運行	-9.59648
初期	-9.59738
ユニット	-9.59746
兄	-9.59823
ヴェ	-9.59824
することで	-9.59826
観	-9.59835
2005	-9.59908
▁このため	-9.59937
候補	-9.59953
非常に	-9.60044
変化	-9.60059
シーン	-9.60178
犬	-9.60213
サッカー	-9.60221
日本人	-9.60224
コーナー	-9.60248
それを	-9.60278
ポーランド	-9.60407
形で	-9.6045
若	-9.60481
奥	-9.60526
me	-9.60641
任	-9.6074
2015	-9.60746
44	-9.60748
万人	-9.60804
米国	-9.60892
プレイ	-9.60913
盛	-9.60928
したため	-9.60953
終了	-9.60969
保護	-9.61229
セット	-9.61278
かった	-9.61467
はない	-9.6148
交換	-9.61492
矢	-9.61581
トー	-9.61595
軌道	-9.61612
セル	-9.61626
富	-9.61654
首	-9.6176
倉	-9.61874
会員	-9.61883
命令	-9.61986
クス	-9.61995
オン	-9.6221
全て	-9.62227
報道	-9.62274
名前	-9.62302
頃	-9.62339
景	-9.62391
存在	-9.62425
カナダ	-9.62591
出し	-9.62603
連載	-9.62689
もしくは	-9.62705
規定	-9.62726
全ての	-9.62869
遊	-9.62974
逆	-9.63047
ss	-9.63052
ii	-9.63054
旅	-9.63073
んで	-9.6308
軸	-9.63216
ジョ	-9.6323
なり	-9.63273
大臣	-9.63395
▁km	-9.63482
分類	-9.63494
et	-9.63496
などに	-9.63613
郎	-9.6365
プログラム	-9.63691
結婚	-9.63808
引	-9.63809
の戦い	-9.63857
47	-9.63887
sa	-9.63962
▁2002	-9.64146
同盟	-9.64147
宗教	-9.64155
es	-9.64203
選手権	-9.64209
配信	-9.64221
費	-9.64313
セン	-9.64325
番号	-9.64357
デル	-9.64393
筋	-9.64408
服	-9.64543
系の	-9.64589
55	-9.6465
▁現在	-9.64651
te	-9.64654
次の	-9.6467
機体	-9.64724
を示す	-9.64771
印	-9.64811
農業	-9.64816
だい	-9.64839
国立	-9.64895
メン	-9.64947
連邦	-9.64948
にあり	-9.65016
で行われた	-9.65018
最終	-9.65095
クラ	-9.65137
障害	-9.65218
46	-9.6522
ドゥ	-9.65268
を参照	-9.65273
になると	-9.65273
特	-9.65303
ドン	-9.65368
説明	-9.65381
反対	-9.65485
工	-9.65512
周辺	-9.65532
を通じて	-9.65553
康	-9.65681
弁	-9.65729
間の	-9.65733
酸	-9.65739
と呼ぶ	-9.6575
える	-9.65751
善	-9.66041
軍の	-9.66065
れば	-9.6607
図書館	-9.66137
単位	-9.66141
事務所	-9.66254
領域	-9.66277
開業	-9.66283
スタイル	-9.66307
シティ	-9.66312
しょう	-9.66362
オランダ	-9.66379
としても	-9.66443
訓練	-9.66652
同時に	-9.667
2016	-9.66757
億	-9.6683
孫	-9.66872
▁b	-9.66911
をもって	-9.66981
as	-9.67001
医療	-9.67115
当初は	-9.6715
広島	-9.67156
選択	-9.67199
設立	-9.67223
▁これ	-9.67252
資料	-9.67259
いくつかの	-9.67306
九	-9.67309
姓	-9.67309
弟	-9.67347
特徴	-9.67414
分野	-9.67483
末	-9.67505
するが	-9.67563
温泉	-9.67604
住民	-9.67611
が行われ	-9.67628
の娘	-9.67689
傷	-9.6771
皇帝	-9.67782
とう	-9.67868
▁例えば	-9.67912
シャー	-9.67934
彼	-9.67989
ことが多い	-9.68022
改造	-9.68085
圏	-9.68109
介	-9.68114
アンド	-9.68193
▁2001	-9.68239
ほとんど	-9.68282
江戸	-9.68285
を受ける	-9.68305
ga	-9.68374
行き	-9.68385
君	-9.68412
柳	-9.68422
ショー	-9.68451
観光	-9.6846
視	-9.68464
丁目	-9.68468
剤	-9.6859
mo	-9.68615
持ち	-9.68672
it	-9.68767
以後	-9.68776
塔	-9.68865
すべて	-9.68904
博物館	-9.68953
委員	-9.69017
el	-9.69026
▁and	-9.69042
とその	-9.69057
地元	-9.69065
いわゆる	-9.69079
ミュージック	-9.69081
リリース	-9.69081
ps	-9.69104
生徒	-9.69107
急	-9.69171
東部	-9.69181
法律	-9.69246
貴	-9.69294
ジン	-9.69294
茶	-9.69346
連盟	-9.69403
専用	-9.69416
に近い	-9.69481
だと	-9.6949
小さな	-9.69552
ミー	-9.69558
基地	-9.69585
沼	-9.69612
訳	-9.69632
やま	-9.69639
減	-9.69658
向	-9.69662
そのまま	-9.69663
キャ	-9.69713
毎年	-9.69727
本部	-9.69884
出す	-9.6995
on	-9.69961
精神	-9.69962
ティー	-9.69983
別の	-9.70002
李	-9.70007
歳で	-9.70052
装備	-9.70062
42	-9.70076
400	-9.7016
ラム	-9.70179
アップ	-9.70242
者の	-9.70356
報告	-9.70491
発生	-9.70497
os	-9.70506
留	-9.70528
友	-9.70534
ブルー	-9.7054
トル	-9.707
新たに	-9.7072
緑	-9.7077
連絡	-9.70779
▁現在は	-9.70781
指導	-9.70802
機械	-9.70885
タイプ	-9.70913
ックス	-9.70924
関東	-9.70953
様	-9.70965
ストーリー	-9.70995
種類	-9.7103
地下	-9.71059
収録	-9.71232
位置	-9.71265
学部	-9.71389
税	-9.71448
以降は	-9.71473
要素	-9.71491
』、『	-9.71521
の研究	-9.71548
アメリカの	-9.71553
出した	-9.71566
通算	-9.71578
標準	-9.71633
に属する	-9.7166
キング	-9.7169
2017	-9.717
43	-9.71716
引退	-9.71724
分離	-9.71744
ブリ	-9.71807
内閣	-9.71813
早	-9.71896
最大の	-9.7209
主人公	-9.72251
do	-9.72349
コル	-9.72364
となって	-9.72369
湯	-9.72454
フォン	-9.72527
切り	-9.7253
ボー	-9.72536
要	-9.72574
網	-9.72594
速度	-9.72689
務	-9.72739
車体	-9.7281
モー	-9.72814
を指す	-9.72877
たちは	-9.72905
ワールド	-9.72922
切	-9.72992
機器	-9.73122
ルート	-9.73124
関西	-9.73246
議員	-9.73281
になって	-9.73307
となっていた	-9.73332
部屋	-9.73434
地震	-9.73488
治療	-9.73504
イー	-9.73545
がいる	-9.73613
ウス	-9.738
アフリカ	-9.73848
生物	-9.73859
ゲン	-9.73933
1000	-9.73944
においても	-9.74048
▁翌	-9.74115
営	-9.74119
2004	-9.74142
と考えられている	-9.74209
すれば	-9.74221
したり	-9.74391
ミン	-9.74408
がない	-9.74428
強い	-9.74477
投手	-9.74598
ジャー	-9.74615
、2010	-9.74644
バージョン	-9.74645
勝ち	-9.74661
深	-9.74687
大陸	-9.74688
前の	-9.74758
予選	-9.74774
しん	-9.74796
美術	-9.74831
発展	-9.74855
綱	-9.74861
黄	-9.74882
方向	-9.74913
を開始した	-9.7494
冬	-9.74977
成功	-9.75038
▁6	-9.75039
竜	-9.75054
装	-9.75135
を意味する	-9.75145
広く	-9.75164
配置	-9.75192
必要	-9.75193
ごとに	-9.75268
限定	-9.7528
ジョージ	-9.75326
改革	-9.7534
脳	-9.7534
ことになる	-9.75399
中心	-9.75485
カール	-9.75558
しばしば	-9.75591
制御	-9.75661
テル	-9.75672
時代に	-9.75683
58	-9.75736
or	-9.7575
桜	-9.7582
具	-9.75834
劇	-9.75891
lo	-9.75895
余	-9.75901
自身	-9.76021
獲得	-9.76022
回転	-9.76064
×	-9.7612
性能	-9.76174
慶	-9.76194
だけでなく	-9.76229
▁f	-9.76276
記事	-9.7631
ケン	-9.76321
長い	-9.76422
修	-9.7654
商業	-9.76545
幕	-9.76545
肉	-9.76564
連合	-9.76571
健	-9.7664
ざ	-9.76695
してきた	-9.767
日本語	-9.76714
ブラジル	-9.76743
2018	-9.76758
フォード	-9.76787
コード	-9.76802
41	-9.76807
イギリスの	-9.76816
側の	-9.76849
太陽	-9.76885
建物	-9.76995
一人	-9.77018
立ち	-9.77036
一方	-9.771
神戸	-9.77138
一部の	-9.77284
!」	-9.77377
ボン	-9.77386
!』	-9.77414
に入り	-9.77435
▁1990	-9.77477
pc	-9.77503
過	-9.77504
の場合	-9.77518
書き	-9.77576
可能	-9.77591
マーク	-9.77608
▁s	-9.77619
ge	-9.77623
を取り	-9.77686
貴族	-9.7779
けん	-9.77796
ter	-9.77808
言葉	-9.78008
欧州	-9.78032
シェ	-9.78047
ソフト	-9.78102
設備	-9.78245
を結ぶ	-9.78289
世の	-9.78312
朝鮮	-9.78364
、2007	-9.78398
操作	-9.78491
同社	-9.78541
、2008	-9.78549
指揮	-9.78556
、2009	-9.78605
ファー	-9.7878
ニア	-9.78808
▁formula	-9.78852
トラック	-9.78877
死去	-9.78954
スタッフ	-9.78975
なか	-9.79004
中で	-9.7902
ジャン	-9.79052
交流	-9.79102
孝	-9.79125
延長	-9.79169
落	-9.79191
ne	-9.79222
任務	-9.79253
際に	-9.79351
本塁打	-9.79354
実際に	-9.79357
ヴァー	-9.79371
ダイ	-9.79415
件	-9.79424
文書	-9.79479
油	-9.7957
定義	-9.79574
年にかけて	-9.79603
コンピュータ	-9.79663
にして	-9.79729
牛	-9.79735
号線	-9.79747
ボール	-9.79791
距離	-9.79906
展示	-9.79979
モード	-9.80036
75	-9.80081
支配	-9.80119
扱い	-9.80128
配	-9.80132
辺	-9.8016
げ	-9.80252
プラ	-9.80284
労働	-9.80298
の間	-9.80358
基本	-9.80387
堀	-9.80443
パーク	-9.80451
農	-9.80456
延	-9.80482
防	-9.80494
地上	-9.80528
本社	-9.80547
ともに	-9.806
イングランド	-9.80649
多数の	-9.80656
成長	-9.80682
ベース	-9.80704
65	-9.80717
アス	-9.80749
からなる	-9.80814
することができる	-9.8082
64	-9.80851
罪	-9.80851
ほう	-9.80858
布	-9.80889
貞	-9.80905
密	-9.81039
ポール	-9.81062
仲	-9.81065
唯一の	-9.81087
▁18	-9.81088
もう	-9.81154
デジタル	-9.81181
圧	-9.81224
オーストリア	-9.81282
▁日本では	-9.81325
カラ	-9.81383
を務め	-9.8142
フォ	-9.81447
行われた	-9.81495
法人	-9.81643
術	-9.81726
まず	-9.81764
共に	-9.81806
高速	-9.81811
冠	-9.8201
結	-9.82083
本線	-9.82097
ペン	-9.82139
編集	-9.82145
ゴール	-9.82195
情	-9.82212
グリ	-9.82233
きた	-9.8224
思想	-9.8225
諸島	-9.8227
競走	-9.82321
いずれも	-9.82381
材	-9.82473
と言う	-9.82482
ウェイ	-9.82569
意識	-9.82576
ていく	-9.82595
と同様に	-9.8262
付き	-9.82634
ゾ	-9.82635
ピアノ	-9.82708
アメリカ合衆国の	-9.82723
俊	-9.82748
枝	-9.82814
要求	-9.82876
栄	-9.82979
ものは	-9.82984
出力	-9.83103
カラー	-9.83166
ベイ	-9.83169
ことに	-9.83193
メル	-9.83196
オル	-9.83237
込む	-9.83254
となっており	-9.83261
ネットワーク	-9.83329
資金	-9.83397
▁だが	-9.83444
従	-9.83555
スタート	-9.83588
対策	-9.836
進出	-9.83606
保存	-9.83615
までの	-9.83636
、2006	-9.83659
安全	-9.8366
ia	-9.83695
可能性	-9.83707
知事	-9.83751
接続	-9.83785
公式	-9.83823
窓	-9.83917
乱	-9.83996
博	-9.84012
相手	-9.84037
同じく	-9.84048
自治体	-9.84051
使	-9.84071
だけで	-9.84108
名が	-9.84148
供給	-9.84179
じょう	-9.84202
ようになる	-9.8421
ri	-9.8423
▁1999	-9.84235
プロデューサー	-9.84264
49	-9.84277
、2011	-9.84278
あまり	-9.84291
交渉	-9.84311
ro	-9.84337
意味	-9.84357
を得た	-9.8436
復帰	-9.84452
化学	-9.8446
リオ	-9.84562
停止	-9.84568
智	-9.84643
月まで	-9.84649
のもの	-9.8465
ユー	-9.84657
憲法	-9.84717
ハウス	-9.84779
is	-9.84803
ほ	-9.84811
オープン	-9.84843
眼	-9.84882
資格	-9.84907
タウン	-9.84929
絶	-9.85017
交	-9.85133
球団	-9.85172
影響	-9.85216
中継	-9.85249
銃	-9.85252
純	-9.85321
ヘル	-9.85346
ca	-9.85395
日より	-9.854
すべての	-9.85504
あった	-9.85534
柱	-9.85572
昌	-9.85725
までは	-9.85727
杯	-9.85777
を果たした	-9.85944
脚	-9.85999
ウィリアム	-9.86006
pa	-9.8606
付近	-9.86101
タル	-9.86114
かわ	-9.86119
結合	-9.86138
グラ	-9.86148
ごう	-9.86271
採用	-9.86387
電力	-9.86474
56	-9.86496
固定	-9.86515
博士	-9.86517
li	-9.86521
対立	-9.86641
インターネット	-9.86687
積	-9.86731
名称	-9.86862
したもの	-9.86876
ナン	-9.86891
速	-9.86962
改良	-9.86965
報	-9.86969
レベル	-9.87002
で開催された	-9.87098
廃	-9.87123
ちゃん	-9.87146
を用いて	-9.87148
伝説	-9.87196
仕事	-9.87211
声優	-9.87231
57	-9.87253
独自の	-9.873
姫	-9.87315
導入	-9.87338
年代に	-9.87343
ホー	-9.87392
共通	-9.87397
射	-9.87451
物質	-9.87486
のち	-9.87494
週	-9.87515
とされた	-9.87598
料	-9.87648
ヴァン	-9.87649
陸	-9.87664
てしまう	-9.87672
普通	-9.87673
境	-9.87715
剣	-9.87733
通常	-9.87741
症	-9.87743
自動	-9.87792
tbs	-9.87813
しなかった	-9.87835
▁16	-9.87881
なし	-9.8796
茂	-9.87969
住宅	-9.88032
投票	-9.88049
2003	-9.88067
ぼ	-9.88081
テーマ	-9.88098
、2012	-9.88147
名を	-9.88175
などがある	-9.88235
ことになった	-9.88316
伯	-9.88345
指	-9.88345
▁10	-9.88416
もあった	-9.88435
についても	-9.8845
軍は	-9.88455
医	-9.88475
追加	-9.88477
ール	-9.88551
会場	-9.88563
関数	-9.88618
ベン	-9.88633
ac	-9.88713
cc	-9.88719
平和	-9.88779
主演	-9.88786
こともあり	-9.88892
▁大	-9.88925
まま	-9.88949
世代	-9.89023
補	-9.89025
全体	-9.89059
購入	-9.89122
原作	-9.89161
受	-9.89288
期待	-9.89304
のほか	-9.8932
54	-9.89322
クル	-9.89336
計算	-9.89356
阿	-9.89356
と同時に	-9.89413
部長	-9.89455
be	-9.89554
大きく	-9.89578
ドー	-9.89583
温	-9.89596
論文	-9.89676
望	-9.89688
翼	-9.89703
少女	-9.8972
ポン	-9.89862
サイド	-9.89871
議	-9.8989
ものであった	-9.89902
を有する	-9.89949
世は	-9.89961
確認	-9.89998
旅行	-9.90016
セント	-9.90027
議論	-9.90055
オス	-9.90071
ar	-9.90076
略	-9.90084
合成	-9.90135
後期	-9.90144
レット	-9.90165
記述	-9.90174
自己	-9.90176
旗	-9.9019
ジュニア	-9.90263
甲	-9.90279
エス	-9.9028
の中心	-9.9028
演出	-9.9028
ソフトウェア	-9.90297
99	-9.90334
次郎	-9.90368
ba	-9.90388
打ち	-9.9042
いない	-9.90458
▁元	-9.90482
従来の	-9.90504
トンネル	-9.90507
分析	-9.90523
民主党	-9.90571
たり	-9.90572
弱	-9.90594
戦車	-9.90629
まだ	-9.90632
プレ	-9.90636
推進	-9.90705
卵	-9.90742
トロ	-9.90755
エー	-9.9077
発見	-9.90775
植民地	-9.90864
歯	-9.90944
クロ	-9.9095
目標	-9.90981
解散	-9.91011
?	-9.91089
愛知県	-9.9111
fa	-9.91145
太平洋	-9.91145
をする	-9.91196
▁そこで	-9.91249
礼	-9.91387
ルール	-9.9155
id	-9.91705
キリスト教	-9.91715
師団	-9.91722
フィールド	-9.91749
脚本	-9.91753
ms	-9.91786
房	-9.91792
▁1980	-9.91796
の開発	-9.91805
穴	-9.91902
臣	-9.9192
現象	-9.91955
各種	-9.92001
1990	-9.92015
チン	-9.92026
精	-9.92084
更新	-9.92168
ビン	-9.92203
チュ	-9.92212
うち	-9.92256
▁これにより	-9.9234
ゆ	-9.92365
に加え	-9.9238
デー	-9.92393
優	-9.92538
▁7	-9.92546
放	-9.92602
禁止	-9.92648
なくなった	-9.92656
策	-9.92657
破	-9.92667
ジャパン	-9.92672
東北	-9.92675
▁<	-9.92714
登場	-9.92853
#	-9.92854
▁8	-9.92858
電話	-9.92859
▁g	-9.92863
多く	-9.92895
に入る	-9.93002
殿	-9.93085
2001	-9.93091
ヒット	-9.93109
脱	-9.93116
ーズ	-9.93119
責任	-9.93143
氷	-9.9315
戦い	-9.93154
らが	-9.93186
ぬ	-9.93198
課	-9.9326
の間に	-9.93267
手法	-9.93287
コーチ	-9.93287
将	-9.93288
ダンス	-9.93344
込んだ	-9.93361
▁それ	-9.93386
ソー	-9.9348
まる	-9.93491
検査	-9.93527
のひとつ	-9.93545
炎	-9.93611
2002	-9.93622
ブロック	-9.93627
国鉄	-9.93661
組合	-9.93748
ことも	-9.93775
いい	-9.93777
59	-9.93778
に関しては	-9.93824
処分	-9.93859
だろう	-9.93882
動き	-9.9389
宣言	-9.93895
sc	-9.93906
応	-9.93952
独	-9.93956
練習	-9.93961
マス	-9.93961
ブラック	-9.93999
とされ	-9.94
メキシコ	-9.94006
シア	-9.94014
政党	-9.94034
祖	-9.94071
老	-9.94072
されたが	-9.94084
いく	-9.94096
エイ	-9.94117
規制	-9.94124
ha	-9.94213
これら	-9.9422
|	-9.94226
ピー	-9.94252
読み	-9.94253
ション	-9.94347
an	-9.9438
貿易	-9.94394
砂	-9.9443
武器	-9.94444
半島	-9.94459
乳	-9.94474
復活	-9.94483
殺	-9.94491
▁1998	-9.94512
アーティスト	-9.94575
ベルリン	-9.94576
場合もある	-9.94586
ケース	-9.94647
アナ	-9.94699
録音	-9.9474
むら	-9.9476
に由来する	-9.94795
の名前	-9.9483
既に	-9.94856
就任	-9.94872
▁12	-9.94881
mi	-9.94899
医師	-9.949
▁現在の	-9.94907
を除く	-9.9492
金属	-9.95021
段階	-9.95024
ッチ	-9.95071
パス	-9.95138
全日本	-9.95193
改正	-9.95249
おお	-9.95261
被害	-9.95293
完全	-9.95353
180	-9.9538
il	-9.95383
エリア	-9.95385
刀	-9.95398
航空機	-9.95401
拡張	-9.95411
市内	-9.95426
通称	-9.95469
デス	-9.95524
da	-9.95561
フランスの	-9.95604
フォー	-9.9561
カメラ	-9.95654
香港	-9.9572
の結果	-9.95747
柄	-9.95755
床	-9.95769
不足	-9.95803
方針	-9.95845
歩	-9.95948
です	-9.95955
抵抗	-9.96002
退	-9.96337
リス	-9.96427
ワールドカップ	-9.96506
改善	-9.96694
の存在	-9.96737
学会	-9.96753
5%	-9.96766
典	-9.96776
ギター	-9.96788
サル	-9.96823
イル	-9.96851
顔	-9.96877
すぐに	-9.96903
鈴木	-9.96943
導	-9.96985
コンサート	-9.97
一方で	-9.97006
児	-9.97014
合い	-9.97017
唐	-9.97049
▁to	-9.97053
底	-9.97091
分子	-9.97152
するという	-9.97177
護	-9.97193
筆	-9.97234
読	-9.97241
、2013	-9.97259
を始め	-9.97271
オール	-9.97278
焼	-9.97311
魔	-9.97345
共	-9.97356
化した	-9.97466
と対戦し	-9.97538
ti	-9.97562
鬼	-9.97569
gp	-9.97631
レッド	-9.97657
劉	-9.97668
▁e	-9.97734
▁当初は	-9.97749
画家	-9.97791
クリ	-9.9785
、2005	-9.97881
アナウンサー	-9.97884
息子	-9.97885
sp	-9.97889
、2014	-9.97919
スク	-9.97956
は約	-9.9796
ネス	-9.98024
過去	-9.98105
go	-9.98168
セイ	-9.98199
の歴史	-9.98266
神経	-9.98344
鶴	-9.98359
ページ	-9.98392
度目の	-9.98465
グランプリ	-9.98472
日間	-9.98477
ソロ	-9.98522
▁明治	-9.98546
第三	-9.98555
流れ	-9.98572
遺跡	-9.98577
メイ	-9.98587
判断	-9.98589
にわたって	-9.98673
ロード	-9.98713
ゲスト	-9.98735
統治	-9.98738
テレビドラマ	-9.98762
ヒル	-9.98827
破壊	-9.9887
投	-9.98884
電車	-9.98964
更に	-9.99005
であるため	-9.9906
51	-9.99081
紀元前	-9.99142
をはじめ	-9.99187
ミニ	-9.99212
古代	-9.99212
恵	-9.99222
理由	-9.99226
也	-9.99228
事実	-9.99255
市長	-9.99283
月より	-9.99422
リック	-9.9945
創設	-9.99463
率いる	-9.99465
三郎	-9.99535
1980	-9.99563
テスト	-9.99564
労働者	-9.99646
鎮	-9.99681
イメージ	-9.99696
燃料	-9.99746
▁k	-9.9977
考え	-9.99797
遺	-9.9981
王座	-9.99811
戦後	-9.99862
英国	-9.99863
維持	-9.99908
環	-10.0006
ポリ	-10.0006
取引	-10.0011
区域	-10.0013
登	-10.0017
▁本	-10.0017
億円	-10.0018
滝	-10.0019
▁1997	-10.002
実現	-10.0024
連隊	-10.0032
可能な	-10.0036
に参加	-10.0041
ケイ	-10.0043
家庭	-10.0043
幕府	-10.0046
デイ	-10.0059
接	-10.0059
振	-10.0061
いち	-10.0065
ra	-10.0066
賀	-10.0067
姿	-10.0067
ものが	-10.0069
ちょう	-10.0071
週間	-10.0075
認定	-10.0081
レギュラー	-10.0087
福岡	-10.0094
▁後に	-10.0099
ずつ	-10.0099
時は	-10.0102
できた	-10.0112
作曲家	-10.0115
スペシャル	-10.0117
地点	-10.0131
スウェーデン	-10.0137
前後	-10.014
参	-10.0144
腹	-10.0145
集合	-10.0146
ノン	-10.0146
散	-10.0147
▁11	-10.0147
泰	-10.0154
離	-10.0155
の影響	-10.0157
向き	-10.0158
仲間	-10.0162
なども	-10.0165
民間	-10.0167
衛星	-10.0168
受け	-10.0169
gi	-10.0176
のまま	-10.0176
小型	-10.0177
▁p	-10.0178
可	-10.0184
階級	-10.0187
近代	-10.0196
さまざまな	-10.0198
裁判	-10.0198
600	-10.0202
プリ	-10.0205
ドア	-10.0206
▁1996	-10.0208
長官	-10.021
券	-10.0211
評	-10.0213
エア	-10.0215
丘	-10.0216
価格	-10.0217
奈	-10.0217
一郎	-10.0222
85	-10.0225
と呼ばれ	-10.0227
の中に	-10.0227
試	-10.023
住	-10.0232
ミス	-10.0235
食品	-10.0237
患者	-10.0242
年以降	-10.0243
舞	-10.0247
街道	-10.0248
ke	-10.0249
formula	-10.0251
、2000	-10.0251
被	-10.0255
健康	-10.0255
田中	-10.0257
調整	-10.0262
ka	-10.0264
グリーン	-10.0268
証	-10.0276
とも呼ばれる	-10.028
800	-10.0282
した後	-10.0285
氏の	-10.0285
万ドル	-10.029
っており	-10.0291
を用いた	-10.0293
腕	-10.0296
化された	-10.03
意見	-10.0302
ポー	-10.0317
マイル	-10.0318
150	-10.0326
信仰	-10.0332
複数	-10.0337
ファイル	-10.035
回復	-10.0351
bs	-10.0354
学院	-10.0356
掲載	-10.0356
ハル	-10.0357
運	-10.0362
児童	-10.0362
レーベル	-10.0363
、2015	-10.0365
バラ	-10.0365
準	-10.0371
ベー	-10.0374
後も	-10.0374
78	-10.038
仮	-10.038
主張	-10.0381
参戦	-10.0385
支持	-10.0387
ガル	-10.0389
岸	-10.039
納	-10.0391
52	-10.0391
に登場する	-10.0394
ケー	-10.0395
53	-10.0396
関係者	-10.04
のメンバー	-10.04
追	-10.0404
76	-10.0409
近く	-10.0411
杉	-10.0415
ce	-10.0416
62	-10.0416
ドイツの	-10.0418
輸入	-10.0418
それが	-10.0422
千葉	-10.0423
中村	-10.0425
▁全	-10.0426
長期	-10.0426
千葉県	-10.0428
サイズ	-10.0429
拠点	-10.043
収	-10.0434
au	-10.0435
細	-10.0439
沖縄	-10.0439
▁9	-10.0439
吉田	-10.0445
クレ	-10.0448
に関して	-10.0451
ダル	-10.0452
ランキング	-10.0457
埼玉県	-10.0458
派の	-10.0459
に入った	-10.0461
思い	-10.0468
ウル	-10.047
内部	-10.0475
医学	-10.0475
えき	-10.0479
▁1995	-10.048
恋	-10.0487
皮	-10.0489
イオン	-10.0491
多数	-10.0496
86	-10.0497
奏	-10.0502
国王	-10.0504
を使って	-10.0504
ラス	-10.0506
2019	-10.051
雅	-10.0519
大規模な	-10.0521
アイルランド	-10.0521
63	-10.0526
休	-10.0529
始め	-10.0531
ゴー	-10.0533
始めた	-10.0533
起	-10.0535
一度	-10.0535
改	-10.0536
翌年	-10.0536
ボル	-10.0537
マリ	-10.0546
ワイ	-10.0546
本作	-10.0558
であること	-10.0558
作り	-10.056
羅	-10.0561
事態	-10.0568
アリ	-10.057
vi	-10.0571
許可	-10.0571
国の	-10.0572
88	-10.0573
程	-10.058
兵器	-10.0583
澤	-10.0583
長崎	-10.0587
▁当時	-10.059
河川	-10.0592
惑星	-10.0594
静	-10.0601
合計	-10.0607
指名	-10.0619
av	-10.0625
終	-10.0625
継続	-10.0627
市出身	-10.0634
準備	-10.0637
記載	-10.0637
敬	-10.064
タレント	-10.0641
後半	-10.0644
ピン	-10.0645
売	-10.0648
上位	-10.0649
これが	-10.0649
失	-10.0663
つき	-10.0664
雑	-10.0665
失敗	-10.0668
許	-10.0669
題	-10.067
<	-10.0675
の際に	-10.0677
特定	-10.0678
ときに	-10.0678
からも	-10.0688
しゃ	-10.069
降	-10.0691
〉	-10.0692
〈	-10.0692
途中	-10.0693
を表す	-10.0698
大阪府	-10.0699
77	-10.0699
送	-10.07
画面	-10.0701
クー	-10.0706
たちが	-10.0707
▁w	-10.0709
ヶ月	-10.0712
諸国	-10.0714
▁re	-10.0717
ッシュ	-10.072
塚	-10.0724
広告	-10.0727
富士	-10.0728
上げ	-10.0728
理解	-10.0729
場合には	-10.0731
ルイ	-10.0743
古い	-10.0747
ことにより	-10.0748
誕生	-10.0748
地下鉄	-10.0749
嘉	-10.0752
ップ	-10.0753
マシン	-10.0753
れる	-10.0754
が行われる	-10.0761
ol	-10.0764
特定の	-10.0764
初期の	-10.0769
発言	-10.077
ナイト	-10.0772
95	-10.0773
入れ	-10.0776
ものであり	-10.0779
型の	-10.0782
解釈	-10.0784
自分	-10.0787
年齢	-10.0794
チャンネル	-10.0794
正式に	-10.0796
に就任	-10.0799
ci	-10.08
競馬	-10.0801
替え	-10.0804
プレー	-10.0805
に至る	-10.0805
中部	-10.0805
発射	-10.0807
にもかかわらず	-10.0809
解決	-10.081
取得	-10.0812
貨物	-10.0813
のみで	-10.0813
侵攻	-10.0814
名誉	-10.0818
メジャー	-10.0819
撤退	-10.0826
▁1970	-10.0839
規模	-10.0846
カバー	-10.085
業界	-10.0852
称	-10.0852
man	-10.0853
しい	-10.0853
潮	-10.0854
飯	-10.0857
箱	-10.0858
コミック	-10.0864
継承	-10.0864
思	-10.0866
哲学	-10.0878
駅間	-10.0888
戦略	-10.0889
価値	-10.0893
提案	-10.0896
分割	-10.0897
でき	-10.0901
結成	-10.0908
主要	-10.091
成績	-10.092
傾向	-10.092
それぞれの	-10.0926
も多い	-10.093
までに	-10.0931
をした	-10.0933
鹿	-10.0935
作成	-10.0936
阪神	-10.0939
潜水艦	-10.0941
比較的	-10.0948
畑	-10.095
と考えられる	-10.095
をしている	-10.0953
安定	-10.0955
空気	-10.0956
青年	-10.0959
66	-10.0962
ds	-10.0964
ation	-10.0967
、2004	-10.097
栽培	-10.0972
ロケット	-10.098
ユダヤ人	-10.0982
、2016	-10.0986
側に	-10.099
のちに	-10.0991
un	-10.0994
らない	-10.0994
と述べている	-10.1
▁d	-10.1
▁1994	-10.1
1999	-10.1003
を超える	-10.1007
トム	-10.1008
犯罪	-10.101
固	-10.1011
シル	-10.1012
作用	-10.1014
fm	-10.1014
の場合は	-10.1016
製の	-10.1022
髪	-10.1022
一時	-10.1027
菌	-10.1032
べき	-10.1034
紹介	-10.1034
認識	-10.1036
プレイヤー	-10.1037
年現在	-10.1037
弁護士	-10.1039
姉	-10.104
衝突	-10.1041
荒	-10.1042
スペース	-10.1043
リュ	-10.1045
やすい	-10.1046
成立	-10.1046
98	-10.1047
裕	-10.1048
に基づく	-10.1053
次第に	-10.1054
ki	-10.1054
有名	-10.1057
日本で	-10.1059
ソング	-10.106
王者	-10.1062
集落	-10.1064
▁一方で	-10.1064
あい	-10.1065
に位置し	-10.1066
ip	-10.1073
com	-10.1075
1970	-10.1076
移転	-10.1078
一番	-10.1083
従来	-10.1084
東海	-10.1091
チャンピオン	-10.1091
折	-10.1092
禁	-10.1094
ング	-10.1108
]	-10.1109
ウィン	-10.111
当時は	-10.1118
していく	-10.112
ヴェル	-10.1127
職員	-10.1136
ck	-10.114
スタジアム	-10.114
あたり	-10.1143
低い	-10.1147
佐藤	-10.1147
決勝	-10.115
少	-10.1155
フレ	-10.1156
交差点	-10.1159
ていった	-10.116
呉	-10.1163
動作	-10.1164
冊	-10.1166
ビジネス	-10.1168
票	-10.1174
養	-10.1177
兵士	-10.1181
ます	-10.1183
仏教	-10.1186
▁その他	-10.1187
同一	-10.1188
所有	-10.1192
を得る	-10.1192
梅	-10.1193
ドラ	-10.1193
膜	-10.1195
けい	-10.1198
装甲	-10.1201
形状	-10.1201
ph	-10.1205
裁判所	-10.1208
が必要	-10.121
構想	-10.1211
ジャック	-10.1213
向上	-10.1214
強化	-10.1215
およそ	-10.1215
箇所	-10.1217
規格	-10.1217
現在も	-10.1219
寺院	-10.1221
露	-10.1226
チャー	-10.1226
ho	-10.1227
標高	-10.123
現地	-10.1233
亜	-10.1234
間に	-10.1241
打率	-10.1241
すでに	-10.1243
ヴォ	-10.1243
帰	-10.1243
エピソード	-10.1249
キュ	-10.1257
学科	-10.1259
アウト	-10.126
されていたが	-10.1264
現実	-10.1267
海岸	-10.1268
カイ	-10.1271
本人	-10.1281
寿	-10.1281
アイドル	-10.1283
_	-10.1284
末期	-10.1285
ブレ	-10.1286
昇	-10.1291
丁	-10.1292
藤原	-10.1293
トルコ	-10.1294
ニン	-10.1294
形成	-10.13
武装	-10.1302
61	-10.1304
▁t	-10.1307
山田	-10.1312
ビット	-10.1312
ナイ	-10.1322
colspan	-10.1322
▁このような	-10.1326
マリア	-10.1329
きょう	-10.1329
振り	-10.1331
大和	-10.1332
実行	-10.1333
める	-10.1333
派遣	-10.1341
陳	-10.1342
美術館	-10.1344
スクール	-10.1345
与	-10.1356
ものを	-10.1362
晴	-10.1364
仙台	-10.1381
宣	-10.1382
世紀の	-10.1385
あと	-10.1386
暦	-10.1395
上昇	-10.1399
自治	-10.1399
仕	-10.1403
ブレーキ	-10.1407
させて	-10.1414
▁東京	-10.1418
▁主に	-10.1423
▁ア	-10.1427
首都	-10.1429
残り	-10.1429
一般的な	-10.143
回り	-10.1432
背	-10.1432
ユーザー	-10.1435
姉妹	-10.1436
尊	-10.1436
ワシントン	-10.1437
パラ	-10.1438
の息子	-10.1438
翻訳	-10.144
たちの	-10.145
権利	-10.1452
マッ	-10.1457
爆発	-10.146
彼女の	-10.1464
性格	-10.147
徐々に	-10.147
はなく	-10.1475
給	-10.1477
承認	-10.1494
信号	-10.1499
自らの	-10.1505
再生	-10.1511
é	-10.1513
ジョー	-10.1519
財政	-10.1521
ad	-10.1521
死亡	-10.1526
月号	-10.1527
ヤン	-10.1529
ハンガリー	-10.1532
庭	-10.1532
様式	-10.1537
短	-10.1542
ようになり	-10.1547
オペラ	-10.1549
昭	-10.1552
衣	-10.1554
面積	-10.1562
68	-10.1565
伊勢	-10.1567
賢	-10.1568
荘	-10.1572
協定	-10.1573
グル	-10.1574
例えば	-10.1575
son	-10.158
比較	-10.1581
友人	-10.1584
有名な	-10.1585
分の	-10.1587
母親	-10.1588
ペル	-10.1592
年からは	-10.1593
なお	-10.1597
ステ	-10.1601
輝	-10.1602
系列	-10.1603
ミル	-10.1604
できなかった	-10.1607
生き	-10.1608
棟	-10.1609
自身が	-10.1614
冷	-10.1617
▁1992	-10.1618
入学	-10.1621
毒	-10.1625
戦では	-10.1631
寄	-10.1632
歌詞	-10.1633
mp	-10.1635
糸	-10.1639
エジプト	-10.1642
教師	-10.1654
重量	-10.1664
走行	-10.1668
それまで	-10.1671
カット	-10.1673
通常の	-10.1678
モスクワ	-10.168
稲	-10.1684
キャリア	-10.1686
演劇	-10.1689
その他の	-10.169
時点で	-10.1691
金融	-10.17
邦	-10.17
クロス	-10.1707
一族	-10.1707
重要	-10.1707
フィー	-10.1708
特殊	-10.1709
を通して	-10.1711
輸出	-10.1714
検討	-10.1714
当たり	-10.1716
益	-10.1717
墓	-10.1723
銅	-10.1723
置	-10.1725
区別	-10.1735
参照	-10.1738
山本	-10.1741
度の	-10.1742
、2017	-10.1747
略称	-10.175
業者	-10.1753
向けの	-10.176
落ち	-10.1761
なった	-10.1764
したこと	-10.1765
次元	-10.1768
コール	-10.1771
陰	-10.1775
▁/	-10.1777
特急	-10.1777
ギリシャ	-10.1777
僧	-10.1778
の一つである	-10.178
続く	-10.1781
創	-10.179
▁1993	-10.1791
山口	-10.1791
刊行	-10.1791
獣	-10.1792
bo	-10.1794
インディアン	-10.1796
パル	-10.1798
の一人	-10.1799
そこ	-10.1801
▁各	-10.1803
存在する	-10.1808
影	-10.1809
同様	-10.1814
投資	-10.1816
多い	-10.1817
たため	-10.1818
87	-10.1822
執筆	-10.1822
に参加した	-10.1827
遠征	-10.183
ッド	-10.1834
と呼ばれた	-10.1835
プロダクション	-10.1836
ミサイル	-10.1837
おう	-10.1844
快	-10.1852
ゲル	-10.1855
飛	-10.1856
一般に	-10.1856
指導者	-10.1861
争い	-10.1862
立場	-10.1866
由来	-10.1869
適用	-10.187
、1990	-10.1876
▁かつては	-10.1878
▁1991	-10.1885
ine	-10.1889
ッカー	-10.1891
解放	-10.1892
ブロ	-10.1893
るようになった	-10.1895
の間で	-10.1898
卒業後	-10.1904
リンク	-10.1904
事業者	-10.1904
アラ	-10.1906
を引き	-10.1909
全く	-10.1916
それは	-10.1919
地帯	-10.1921
と同じく	-10.1922
株	-10.1922
東側	-10.1927
すべき	-10.1934
ディア	-10.1935
サラ	-10.1938
hi	-10.194
デュ	-10.194
96	-10.1945
芸	-10.1948
発表された	-10.1949
札幌	-10.1951
か月	-10.1953
帰国	-10.1955
統計	-10.1958
表面	-10.196
ゴン	-10.1962
知識	-10.1964
規則	-10.1967
ザン	-10.1967
昇格	-10.1967
彼が	-10.197
ロバート	-10.197
67	-10.1976
則	-10.1978
ヶ	-10.1979
事情	-10.1985
戦線	-10.1993
刑	-10.1994
駆逐艦	-10.1997
おか	-10.2
3,	-10.2
工学	-10.2003
軍団	-10.2006
問	-10.2007
講師	-10.2011
願	-10.2015
分け	-10.2018
オーバー	-10.2019
人に	-10.2022
範囲	-10.2024
すなわち	-10.2033
の各	-10.2038
玄	-10.2043
外国人	-10.2044
ものと	-10.2045
を描いた	-10.2045
を始めた	-10.2049
クト	-10.205
人を	-10.205
が高い	-10.2054
フラ	-10.2057
si	-10.206
パワー	-10.2064
月場所	-10.2067
長さ	-10.2069
スは	-10.207
▁co	-10.2072
しながら	-10.2072
を求める	-10.2073
ブー	-10.2076
ly	-10.2077
チョ	-10.2079
の下で	-10.208
ai	-10.2081
現在では	-10.2087
so	-10.209
に変更	-10.2093
利益	-10.2096
高さ	-10.2098
建造	-10.2099
中学	-10.2099
修正	-10.2102
フィルム	-10.2111
ur	-10.2112
進行	-10.2121
整	-10.2124
最終的に	-10.2125
することを	-10.2134
受賞	-10.2134
検	-10.2136
1998	-10.2141
峰	-10.2148
文庫	-10.2149
史上	-10.2158
ただし	-10.2166
なければならない	-10.2168
最初に	-10.2168
であれば	-10.2175
;	-10.2175
ンズ	-10.2175
テレ	-10.2178
マク	-10.2178
ヴァル	-10.2186
耳	-10.2187
防御率	-10.2192
ベルト	-10.2194
祖父	-10.2195
予算	-10.2198
暗	-10.2203
そのもの	-10.2207
混乱	-10.2212
pe	-10.2215
宇	-10.2215
アカデミー	-10.2223
守備	-10.2224
駅舎	-10.2224
当初	-10.2225
フィン	-10.2225
新宿	-10.2226
状の	-10.2233
するための	-10.2242
▁for	-10.2251
ウクライナ	-10.2252
至	-10.2252
国境	-10.2258
功	-10.226
沖	-10.226
研究者	-10.2261
歴代	-10.2265
年生	-10.2266
全米	-10.2266
op	-10.2268
父親	-10.227
アクション	-10.227
▁しかしながら	-10.2271
日本では	-10.2271
行われる	-10.2277
ほどの	-10.2281
身体	-10.2282
解説	-10.2284
虎	-10.2288
um	-10.229
政治家	-10.229
ヘンリー	-10.2291
先発	-10.2292
るが	-10.2297
そこで	-10.2297
アク	-10.2297
かれ	-10.2301
まり	-10.2305
di	-10.2308
厳	-10.231
予想	-10.231
覚	-10.2313
ショ	-10.2316
ワイン	-10.2316
体験	-10.2316
仙	-10.2316
にまで	-10.2319
適	-10.2321
ティング	-10.2324
大学院	-10.2325
加入	-10.2328
機会	-10.2328
▁1989	-10.233
sf	-10.2331
実際には	-10.2338
フー	-10.2339
を発表した	-10.2345
深い	-10.2345
鏡	-10.2351
低下	-10.2351
山脈	-10.2353
判決	-10.2355
いている	-10.2357
峠	-10.2363
位の	-10.2369
側面	-10.2369
ロサンゼルス	-10.237
注	-10.2378
高橋	-10.238
外交	-10.2382
ヴィン	-10.2382
イスラエル	-10.2388
プル	-10.2391
戦闘機	-10.2391
ドリ	-10.2393
アム	-10.2396
捜査	-10.2396
用語	-10.2396
兵衛	-10.2397
その他	-10.2398
艇	-10.2399
営業所	-10.2401
守護	-10.2404
中止	-10.2406
▁こうした	-10.2406
権力	-10.2409
人々	-10.2417
相互	-10.2419
模様	-10.2425
両親	-10.2427
芝	-10.2433
ベルク	-10.2439
することになった	-10.2439
占領	-10.2444
最多	-10.2447
展	-10.2449
、2003	-10.2449
世界選手権	-10.2449
未来	-10.2451
司令官	-10.2454
、2018	-10.2458
シャン	-10.2458
を記録した	-10.2458
79	-10.2459
結局	-10.2461
衆	-10.2462
写	-10.2464
を持っている	-10.2466
しく	-10.2467
しま	-10.2468
理事	-10.247
不明	-10.2472
▁j	-10.2472
☆	-10.2474
を行っていた	-10.2474
るため	-10.2476
譲	-10.2481
を獲得した	-10.2481
灯	-10.2484
没	-10.249
ja	-10.2492
と同	-10.2498
プロデュース	-10.2503
ケル	-10.2505
注意	-10.2506
に生まれる	-10.2509
市にある	-10.251
左右	-10.251
現場	-10.2512
紅	-10.2512
主体	-10.2514
ポルトガル	-10.2517
も多く	-10.2517
判定	-10.2518
藩主	-10.2521
示	-10.2522
倒	-10.2524
得	-10.2528
描写	-10.2529
のことである	-10.2531
ネル	-10.2534
議長	-10.2538
費用	-10.2539
かず	-10.2543
画像	-10.2543
はほとんど	-10.2545
トーク	-10.2552
証明	-10.2553
サポート	-10.256
状態で	-10.2568
儀	-10.2575
が行われている	-10.2577
審査	-10.2583
リーダー	-10.2591
以前の	-10.2597
を発表	-10.2601
らず	-10.2602
材料	-10.2604
なければ	-10.2609
高度	-10.2615
こそ	-10.2623
記憶	-10.2623
西側	-10.2624
液	-10.2626
フェル	-10.2626
感じ	-10.2636
手紙	-10.2639
ヘッド	-10.2639
をもつ	-10.2644
レル	-10.2646
負け	-10.2657
芳	-10.2659
されない	-10.266
マッチ	-10.2668
トレ	-10.2673
閉鎖	-10.2674
再建	-10.2675
代わりに	-10.2677
を中心とした	-10.2678
刺	-10.2681
政府は	-10.2683
危険	-10.2684
有効	-10.2686
▁旧	-10.2686
今日	-10.2688
動画	-10.2689
アニメーション	-10.2689
妹	-10.2697
数字	-10.2699
分布	-10.2704
寛	-10.2705
ぶり	-10.2705
されること	-10.2707
1997	-10.2708
ネー	-10.2708
兵庫県	-10.2708
メール	-10.2709
は主に	-10.2722
開発された	-10.2723
フィリピン	-10.2727
通過	-10.2729
アメリカン	-10.273
わずか	-10.2734
義務	-10.2735
違い	-10.2736
温度	-10.2748
衛	-10.275
ry	-10.2751
▁1960	-10.2752
に就任した	-10.2752
このような	-10.2754
子は	-10.276
沿岸	-10.276
パイロット	-10.2762
隠	-10.2762
軒	-10.2766
よい	-10.2766
効率	-10.277
ウッド	-10.2772
69	-10.2774
ラブ	-10.278
長く	-10.2781
清水	-10.2783
が見られる	-10.2784
と思われる	-10.2786
チャン	-10.2786
人で	-10.2788
神奈川県	-10.2791
勤務	-10.2793
ヘン	-10.2798
カリ	-10.2799
かけ	-10.2801
んでいる	-10.2801
扉	-10.2802
定期	-10.2804
を使用する	-10.2806
ながらも	-10.2808
陵	-10.2811
▁新	-10.2812
リード	-10.2813
込んで	-10.2816
1996	-10.2816
人民	-10.2817
キャラ	-10.2824
に当たる	-10.2825
短い	-10.2827
夫人	-10.2828
単独	-10.2828
97	-10.2829
サブ	-10.2829
文献	-10.2833
と同様	-10.2834
オフ	-10.2834
することが	-10.2834
学習	-10.2842
部の	-10.2844
石油	-10.2845
敏	-10.2845
に相当する	-10.2846
北京	-10.2847
完全に	-10.2848
さい	-10.2851
日本軍	-10.2852
スコットランド	-10.2854
式の	-10.2857
生涯	-10.2857
チームは	-10.2859
▁この時	-10.286
日発売	-10.2862
姿勢	-10.2863
ex	-10.2865
を持った	-10.2869
74	-10.287
彼女	-10.2874
の使用	-10.2878
様子	-10.2882
労	-10.2882
刑事	-10.2882
ステークス	-10.2889
劇団	-10.2889
ドライバー	-10.2892
進化	-10.2893
場合がある	-10.2895
命名	-10.29
登板	-10.2901
保険	-10.2905
機種	-10.2907
たか	-10.2907
、1980	-10.2909
先行	-10.2909
激しい	-10.2917
地元の	-10.2917
▁h	-10.292
入団	-10.292
松本	-10.2923
ir	-10.2923
am	-10.2923
憲	-10.2924
を目指す	-10.2925
静岡県	-10.2925
東西	-10.2927
再度	-10.2928
大きい	-10.2929
無線	-10.2931
勇	-10.2932
普及	-10.2932
mc	-10.2934
アクセス	-10.2939
創立	-10.2941
駅前	-10.2944
単に	-10.2948
小さい	-10.2949
空軍	-10.2953
シス	-10.2954
駅から	-10.2954
巣	-10.2954
72	-10.2954
リリースされた	-10.2957
らは	-10.2961
資源	-10.2961
ver	-10.2963
中間	-10.2965
抗	-10.2966
施行	-10.2968
当選	-10.297
福島	-10.2971
リズム	-10.2973
対戦	-10.2975
モル	-10.2975
取締役	-10.298
ウェ	-10.2985
スタン	-10.2989
開設	-10.2993
背景	-10.2996
改修	-10.2998
談	-10.2999
▁以後	-10.3
楽器	-10.3011
プロレス	-10.3014
を用いる	-10.3015
虫	-10.3015
作詞	-10.3017
彼らの	-10.3017
ジャンル	-10.3019
ラル	-10.3025
を得て	-10.3029
一覧	-10.3032
力を	-10.3036
ni	-10.3041
照	-10.3048
つつ	-10.3048
スイス	-10.3057
皇	-10.306
廃止された	-10.3061
交代	-10.3067
逃げ	-10.3068
戦隊	-10.3071
二人	-10.3071
試み	-10.3072
▁i	-10.3074
亀	-10.3074
ばかり	-10.3077
麻	-10.3078
急行	-10.308
ストリート	-10.3082
案内	-10.3083
先に	-10.3086
1995	-10.3087
項目	-10.3089
日現在	-10.3093
全員	-10.3093
ベトナム	-10.3094
ビッグ	-10.3094
尚	-10.3098
句	-10.31
原因	-10.3101
上海	-10.3101
でもあった	-10.3107
をしていた	-10.3109
られていた	-10.3111
に移籍	-10.3113
ガラス	-10.3113
インタビュー	-10.3118
反乱	-10.312
全長	-10.3132
てしまった	-10.3137
公共	-10.314
絵画	-10.3141
ダウン	-10.3143
遅れ	-10.3148
オリ	-10.3152
深夜	-10.3158
大学の	-10.3159
▁身長	-10.3162
を作る	-10.3162
再開	-10.3165
少ない	-10.3169
ろう	-10.317
岡山	-10.3173
印刷	-10.3174
フジテレビ	-10.3179
復	-10.3184
に向けて	-10.3185
ント	-10.3187
殺害	-10.319
分岐	-10.3191
ポート	-10.3192
取材	-10.3201
価	-10.3204
遺伝子	-10.3205
東日本	-10.3212
人と	-10.3213
負担	-10.3214
脇	-10.3216
側は	-10.3219
崩壊	-10.322
im	-10.322
シカゴ	-10.3221
良い	-10.3223
_1	-10.3226
領土	-10.3226
復興	-10.3228
流通	-10.3232
コスト	-10.3236
シーズンは	-10.3237
開幕	-10.3238
浩	-10.3238
推薦	-10.3241
果	-10.3242
ぞ	-10.3246
イラスト	-10.3247
年頃	-10.3248
気候	-10.3252
アート	-10.3253
念	-10.3254
熊本	-10.3257
逆に	-10.326
外国	-10.3268
▁1988	-10.327
経緯	-10.3271
指摘	-10.3272
ならば	-10.3277
、2002	-10.3279
小林	-10.328
除	-10.3281
▁r	-10.3282
算	-10.3282
年代の	-10.3283
少し	-10.3283
由	-10.3284
su	-10.3284
されなかった	-10.3285
個の	-10.3287
になっていた	-10.3287
戻	-10.3289
帰還	-10.3295
も存在する	-10.3296
ディング	-10.3296
地名	-10.3301
伊藤	-10.3305
それら	-10.3307
スコ	-10.3308
音声	-10.3309
行われ	-10.3313
ネイ	-10.3318
チームの	-10.3321
▁me	-10.3321
演	-10.3334
ジム	-10.3335
デモ	-10.3336
してしまう	-10.334
収入	-10.3345
観客	-10.3358
当駅	-10.3358
1960	-10.3362
行った	-10.3363
アメリカ軍	-10.3367
中世	-10.3368
彼ら	-10.3373
集中	-10.3373
ジャズ	-10.3378
であったため	-10.3381
かなり	-10.3382
ここ	-10.339
希望	-10.3391
書籍	-10.3392
言う	-10.3393
フランス語	-10.3395
四国	-10.3397
地域の	-10.3398
する事	-10.3398
打撃	-10.3402
一つ	-10.3404
縦	-10.3412
73	-10.3412
斎	-10.3414
南西	-10.3417
制定	-10.3418
種類の	-10.3421
コロ	-10.3421
として知られる	-10.3425
実際の	-10.3426
敷	-10.3426
試合で	-10.343
浪	-10.3432
nd	-10.3433
卒	-10.3435
故障	-10.3436
つく	-10.3438
ve	-10.3439
雷	-10.3442
ベルギー	-10.3445
加盟	-10.3445
病気	-10.3445
ごろ	-10.3447
ヴィー	-10.3449
のもと	-10.3449
トゥー	-10.345
の一種	-10.3451
加工	-10.3454
福岡県	-10.3454
120	-10.3459
確保	-10.3467
妙	-10.3469
!!	-10.3483
大学で	-10.3483
すぐ	-10.3489
かな	-10.3493
との間に	-10.3494
大手	-10.3495
無料	-10.3498
保有	-10.3501
浮	-10.3503
作者	-10.3506
▁1987	-10.351
ウィーン	-10.3511
サム	-10.3515
柔道	-10.3515
岐阜県	-10.3515
テー	-10.3516
イラン	-10.3517
投げ	-10.3518
開通	-10.3518
通じ	-10.3519
io	-10.3519
原則	-10.3522
若い	-10.3523
しても	-10.3529
概念	-10.3532
加藤	-10.3532
東洋	-10.3532
の意味	-10.3533
合同	-10.354
こともあった	-10.354
使われ	-10.3541
可能性がある	-10.3547
本名	-10.355
臨時	-10.3551
ab	-10.3557
現役	-10.3557
司法	-10.3558
それに	-10.3559
的には	-10.3561
胸	-10.3562
89	-10.3564
といわれる	-10.3565
類似	-10.3565
ミュージシャン	-10.3567
ap	-10.3569
偽	-10.3572
下げ	-10.3572
肩	-10.3573
証拠	-10.3573
するもの	-10.3582
枚目のシングル	-10.3582
テレビアニメ	-10.3585
需要	-10.3586
▁これら	-10.3587
賞を受賞	-10.3589
季	-10.359
age	-10.3591
岳	-10.3595
順位	-10.3607
閉	-10.3609
ワー	-10.3609
広場	-10.3615
外部	-10.3615
立て	-10.3616
酸化	-10.3618
増加	-10.3623
手段	-10.3626
朱	-10.3626
せる	-10.3629
旅客	-10.363
スカ	-10.3633
5000	-10.3635
の建設	-10.3639
男女	-10.364
歴	-10.3645
ヒト	-10.3646
ナル	-10.3654
ツァ	-10.3655
▁当時の	-10.3656
飛び	-10.3656
体重	-10.3658
部品	-10.366
痛	-10.3661
デンマーク	-10.3662
録	-10.3662
海上	-10.3675
双	-10.3676
ても	-10.3679
84	-10.368
顧問	-10.368
駒	-10.3682
高等	-10.3683
リュー	-10.3687
公認	-10.3692
番目の	-10.3693
委員長	-10.3694
移民	-10.3696
新潟県	-10.3697
ロボット	-10.3697
ec	-10.3699
線路	-10.3699
レコーディング	-10.37
上映	-10.37
は全て	-10.37
新規	-10.3701
ジャンプ	-10.3704
ッタ	-10.3705
テロ	-10.3707
を開始	-10.3719
アイテム	-10.3723
習	-10.3727
1994	-10.3732
東映	-10.3734
体系	-10.3735
自体	-10.3736
160	-10.3737
これに	-10.3739
郊外	-10.3743
個体	-10.375
分裂	-10.3756
wa	-10.3761
財	-10.3762
が異なる	-10.3763
1992	-10.3768
の地位	-10.377
のない	-10.377
カトリック	-10.3772
変換	-10.3773
同様の	-10.3777
ないし	-10.3778
01	-10.3782
活	-10.379
に終わった	-10.3791
負傷	-10.3792
人生	-10.3794
台車	-10.3803
を担当した	-10.3803
離脱	-10.3803
恐れ	-10.3805
▁1986	-10.3806
▁be	-10.3807
措置	-10.3808
基礎	-10.3808
幹部	-10.381
彩	-10.3811
であろう	-10.3814
チャールズ	-10.3815
長男	-10.3815
va	-10.3817
ガイ	-10.3818
常に	-10.3822
伯爵	-10.3829
していった	-10.3832
コンセプト	-10.3832
北朝鮮	-10.3835
メー	-10.3837
軍人	-10.3838
秘密	-10.384
災害	-10.3842
修道院	-10.3843
依頼	-10.3844
主催	-10.3844
著	-10.3845
こととなった	-10.3846
政治的	-10.3851
ラグビー	-10.3853
新潟	-10.3858
ジェームズ	-10.3859
per	-10.3866
を果たす	-10.3867
症状	-10.3868
スポンサー	-10.3869
、2001	-10.387
返	-10.3871
、1970	-10.3875
ビア	-10.3876
の下	-10.3877
自社	-10.3877
できず	-10.3879
航	-10.3882
屋根	-10.3883
行う	-10.3886
後述	-10.3886
継	-10.3887
西日本	-10.3889
C	-10.3894
必要がある	-10.3897
ネタ	-10.3905
測定	-10.3906
吹	-10.3909
梁	-10.3926
使用する	-10.3927
地に	-10.3928
放送された	-10.3928
モンゴル	-10.393
ということ	-10.3933
舎	-10.3937
牧	-10.3938
之助	-10.394
1993	-10.3942
ホワイト	-10.3942
▁ここで	-10.3954
弥	-10.3958
活用	-10.396
時点	-10.3963
に基づき	-10.3965
合意	-10.3971
強制	-10.3974
mon	-10.3974
ボス	-10.3975
又は	-10.3976
マイケル	-10.398
ることができる	-10.3983
機の	-10.3984
ート	-10.3985
双方	-10.3986
一連の	-10.399
ts	-10.399
秋田	-10.3991
監督の	-10.3996
〜』	-10.3998
ロール	-10.3999
済	-10.4002
の戦いで	-10.4002
斉	-10.4006
共産党	-10.4006
ひろ	-10.4011
マラ	-10.4012
記号	-10.4013
選抜	-10.4014
れた	-10.4014
売り	-10.4015
籍	-10.4017
須	-10.4026
寄り	-10.4028
グロ	-10.4029
古典	-10.4029
絶対	-10.4029
▁la	-10.4032
▁st	-10.4034
挑戦	-10.4038
誠	-10.4039
数が	-10.4044
するまで	-10.4044
テニス	-10.4047
両編成	-10.4048
転換	-10.4049
危機	-10.4051
まれ	-10.4051
買収	-10.4053
のみならず	-10.4056
屋敷	-10.4059
づ	-10.4061
刊	-10.4063
人である	-10.4066
場面	-10.4069
めた	-10.4071
浅	-10.4072
中山	-10.4072
豪	-10.4076
興行	-10.4077
以前	-10.408
やがて	-10.408
ブラン	-10.408
人類	-10.4084
区分	-10.4086
株式	-10.4087
全体の	-10.4089
合う	-10.409
桁	-10.409
卿	-10.409
さえ	-10.4093
▁1985	-10.4094
厚	-10.4095
上野	-10.4096
にいた	-10.4096
社会主義	-10.4098
寒	-10.4102
働き	-10.4102
漢字	-10.4109
イヤー	-10.411
に伴う	-10.4114
第二次世界大戦	-10.4115
81	-10.4118
沈	-10.4118
焼き	-10.4122
軍が	-10.4123
執行	-10.4124
に出	-10.4124
侯	-10.4125
あらゆる	-10.4127
日本代表	-10.4129
挙	-10.4132
ロウ	-10.4134
資産	-10.4134
ヌー	-10.4135
奴隷	-10.4137
成分	-10.4137
伸び	-10.414
ディスク	-10.414
ード	-10.4141
▁v	-10.4143
料金	-10.4143
6,	-10.4145
ライフ	-10.4147
iii	-10.4147
緊急	-10.4148
深く	-10.4151
の多くは	-10.4152
ラウ	-10.4158
新人	-10.416
以降の	-10.4164
池田	-10.4166
事務	-10.4166
を使った	-10.4169
インチ	-10.4171
ニング	-10.4172
ru	-10.4173
猫	-10.4173
決	-10.4179
に加えて	-10.4179
伝承	-10.4181
貫	-10.4182
活躍	-10.4183
合わせ	-10.4185
と言われている	-10.4186
ウェル	-10.4187
の作品	-10.4198
高く	-10.4199
祐	-10.4201
カス	-10.4202
発達	-10.4202
推定	-10.4205
コス	-10.4207
サウンド	-10.4212
ヌス	-10.4214
1991	-10.4221
抜け	-10.4221
をリリース	-10.4224
▁x	-10.4227
出された	-10.4229
学術	-10.4231
に基づいて	-10.4231
°	-10.4232
判	-10.4232
世が	-10.4234
の特徴	-10.4237
プロ野球	-10.4238
印象	-10.4244
があるが	-10.4246
桃	-10.4249
るなど	-10.4252
役割	-10.4254
総督	-10.4257
大字	-10.4263
レオ	-10.4264
歩兵	-10.4264
利用者	-10.4267
王子	-10.4269
安打	-10.4269
はじめ	-10.4269
激	-10.427
パート	-10.427
部に	-10.4273
魂	-10.4273
井上	-10.428
事実上	-10.4285
投入	-10.4287
補助	-10.4287
がわ	-10.4293
iv	-10.4293
期の	-10.4293
北西	-10.4293
を最後に	-10.4295
蓮	-10.4296
洞	-10.4297
に応じて	-10.4298
桂	-10.4302
ムー	-10.4302
同様に	-10.4303
ユース	-10.4305
下り	-10.4308
から発売された	-10.4308
ヘイ	-10.431
家臣	-10.4311
悪化	-10.4319
がなく	-10.4322
新幹線	-10.4322
生命	-10.4324
ゲー	-10.4327
バーグ	-10.4328
南北	-10.4329
渡辺	-10.4338
女王	-10.4344
押	-10.4347
の中でも	-10.4348
ころ	-10.4349
襲撃	-10.4349
世帯	-10.435
近い	-10.4351
敗退	-10.4354
ソウル	-10.4354
性質	-10.4355
砦	-10.4356
話題	-10.436
分解	-10.4361
スル	-10.4363
自転車	-10.4363
逮捕	-10.4363
を見て	-10.4363
ローカル	-10.4364
市街地	-10.4364
公式サイト	-10.4364
解析	-10.4365
夕	-10.4368
移籍	-10.4368
過程	-10.4369
相当	-10.4369
毎日	-10.4373
フランク	-10.4374
方言	-10.4375
乗り	-10.438
護衛	-10.4381
一帯	-10.4382
奇	-10.4384
追い	-10.4385
脱出	-10.4386
まち	-10.4393
辞	-10.4394
支	-10.4394
ヤー	-10.4394
ya	-10.4394
それらの	-10.4395
監視	-10.4396
アマチュア	-10.4396
記者	-10.44
原題	-10.4405
しばらく	-10.4408
jo	-10.4409
抗議	-10.4414
犯	-10.4421
に参加し	-10.4421
1989	-10.4426
日に行われた	-10.4426
の名称	-10.4429
在住	-10.4429
ました	-10.4431
塾	-10.4433
▁彼の	-10.4446
▁このとき	-10.4448
穂	-10.4449
との関係	-10.4449
如	-10.4451
鳴	-10.4453
巨人	-10.4454
洲	-10.4454
免許	-10.4455
年代から	-10.4457
よし	-10.4459
息	-10.446
援助	-10.446
web	-10.4461
切れ	-10.4461
往復	-10.4461
▁その後も	-10.4464
脱退	-10.4465
実績	-10.4466
雇用	-10.4467
観察	-10.4467
ーナ	-10.4474
用途	-10.4474
独立した	-10.4475
するも	-10.4476
を使う	-10.4479
フィンランド	-10.4479
net	-10.4482
カム	-10.4487
王朝	-10.4487
茨城県	-10.4489
しているが	-10.4489
700	-10.449
バトル	-10.4496
司令部	-10.4496
ian	-10.4496
敗北	-10.4497
▁1984	-10.4497
用に	-10.4502
終わり	-10.4509
eu	-10.4514
銀河	-10.4516
を見せ	-10.4518
袋	-10.4518
と言われる	-10.4519
▁北	-10.452
包囲	-10.4522
合格	-10.4522
当該	-10.4523
は非常に	-10.4523
▁株式会社	-10.4528
提出	-10.453
練	-10.453
続けた	-10.4535
マリー	-10.4536
唯一	-10.4536
大阪市	-10.4537
粒子	-10.454
子が	-10.4541
を持って	-10.4546
一家	-10.4547
闘	-10.4553
少将	-10.4553
札	-10.4554
自宅	-10.4559
数学	-10.4559
弟子	-10.4571
少なくとも	-10.4572
▁1945	-10.4572
頃から	-10.4573
fe	-10.4587
one	-10.4588
が可能	-10.4591
が始まった	-10.4594
流行	-10.4594
エース	-10.4595
に選ばれた	-10.4596
ものだった	-10.4596
民主	-10.4598
寝	-10.4598
社員	-10.4602
予備	-10.4604
支部	-10.4607
捕虜	-10.4611
スピード	-10.4618
載	-10.4622
▁当初	-10.4623
ヤード	-10.4627
ドイツ語	-10.4628
臨	-10.4629
一般的に	-10.4631
250	-10.4638
リーグ戦	-10.4638
カレッジ	-10.4644
主要な	-10.4646
▁u	-10.4647
大佐	-10.4648
グレ	-10.465
編曲	-10.4653
程度の	-10.4658
もっとも	-10.4659
つけ	-10.4661
の際	-10.4664
言及	-10.4664
明らかに	-10.4665
消防	-10.4667
振興	-10.4668
頭部	-10.4669
なん	-10.467
シート	-10.467
現在でも	-10.4671
掛け	-10.4674
前述の	-10.4674
修理	-10.4676
ゲイ	-10.4676
ロング	-10.4677
棒	-10.4677
生成	-10.4678
周囲	-10.468
議席	-10.4682
旨	-10.4685
火災	-10.4685
内容は	-10.4686
の中には	-10.4687
神話	-10.4687
庫	-10.4691
約束	-10.4694
ラウンド	-10.4694
82	-10.4695
▁東	-10.4695
上下	-10.4697
コレクション	-10.4701
フロント	-10.4701
先端	-10.4702
したという	-10.4703
チュー	-10.4706
育成	-10.4707
待	-10.4709
に次ぐ	-10.4712
ローズ	-10.4714
の世界	-10.4716
優れた	-10.4716
エレ	-10.4717
▁アメリカ	-10.472
えた	-10.472
刻	-10.472
ボディ	-10.4724
笠	-10.4726
今後	-10.4727
メント	-10.473
3000	-10.4731
暴	-10.4733
を与え	-10.4734
福島県	-10.4735
年の第	-10.4736
伸	-10.4737
続編	-10.4738
さない	-10.4738
4,	-10.4741
を持っていた	-10.4744
作品は	-10.4744
溝	-10.4748
直後に	-10.475
マスター	-10.4752
放送局	-10.4753
中華人民共和国	-10.4753
されると	-10.4755
ジャケット	-10.4756
発足	-10.4756
に乗り	-10.4757
を与える	-10.4757
くる	-10.4761
ステーション	-10.4761
奈良	-10.4764
菊	-10.477
最後に	-10.4772
うる	-10.4772
演技	-10.4776
束	-10.4777
巡	-10.4778
ブラウン	-10.478
ていなかった	-10.478
ニック	-10.4789
キロ	-10.4789
かどうか	-10.4794
平日	-10.4794
が開始された	-10.4795
自動車道	-10.4796
魔法	-10.4801
協	-10.4806
ウイルス	-10.4807
著書	-10.481
国会	-10.4812
主力	-10.4813
に向かう	-10.4817
トーナメント	-10.4817
んでいた	-10.4821
過去に	-10.4824
採	-10.4824
最優秀	-10.4824
に合わせて	-10.4827
ボーカル	-10.4827
となったが	-10.483
の方が	-10.4833
ブック	-10.4835
通行	-10.4836
der	-10.4837
長野県	-10.4839
創業	-10.4839
sh	-10.4841
強く	-10.4842
県道	-10.4845
毎週	-10.4846
リチャード	-10.4846
軍隊	-10.4857
熊	-10.486
西洋	-10.486
ひとつ	-10.486
北東	-10.4865
州の	-10.4866
幼	-10.4868
ヴィル	-10.4872
選出	-10.4874
と語っている	-10.4876
坊	-10.4877
出来事	-10.4877
鷹	-10.4879
▁ma	-10.4884
てい	-10.4886
入力	-10.4886
と述べた	-10.4886
ion	-10.4898
見解	-10.4902
代替	-10.4908
ノルウェー	-10.4914
座席	-10.4914
ゴールド	-10.4915
誘導	-10.4915
包	-10.4916
ヨー	-10.4922
火山	-10.4922
同時	-10.4925
就	-10.4925
に変更された	-10.4926
端末	-10.4927
沙	-10.4928
国際空港	-10.4931
ブルク	-10.4932
ける	-10.4932
もまた	-10.4934
ているが	-10.4941
負	-10.4941
▁l	-10.4942
詞	-10.4942
メッセージ	-10.4945
申請	-10.4948
▁その後は	-10.495
証言	-10.4954
球場	-10.4955
言い	-10.4956
08	-10.4956
つか	-10.4958
全域	-10.4958
特性	-10.4961
組み	-10.4964
を始める	-10.4965
を利用して	-10.4966
一定の	-10.4966
▁ポジションは	-10.4966
大使	-10.4966
水素	-10.4973
抜き	-10.4974
ラント	-10.4974
本来	-10.4976
ただ	-10.4977
アルゼンチン	-10.4978
著作	-10.4979
単行本	-10.4984
▁1983	-10.4986
成果	-10.4988
連結	-10.4989
使い	-10.4992
石川	-10.4995
弓	-10.4996
を除き	-10.5
詩人	-10.5003
帳	-10.5003
ul	-10.5004
ごく	-10.5005
1988	-10.5008
文明	-10.5011
再編	-10.5018
打点	-10.502
来日	-10.5023
を代表する	-10.5024
uefa	-10.5024
隣	-10.5031
滑	-10.5031
恩	-10.5033
宏	-10.5038
森林	-10.5038
rs	-10.504
エリ	-10.5042
接触	-10.5043
警備	-10.5044
を打ち	-10.5048
払	-10.505
ゆう	-10.5051
バーン	-10.5059
消費	-10.506
暗殺	-10.506
社の	-10.5061
付属	-10.5064
グランド	-10.5067
宣伝	-10.5069
承	-10.5073
po	-10.5073
大隊	-10.5073
侍	-10.5077
ハワイ	-10.5081
事を	-10.5082
引き続き	-10.5082
いだ	-10.5084
そこに	-10.5085
ポジション	-10.5086
プラン	-10.5088
好き	-10.5091
、1999	-10.5092
オート	-10.5092
にした	-10.51
要因	-10.5104
主な	-10.5105
ツー	-10.5105
植	-10.5105
資本	-10.5107
降格	-10.5108
止め	-10.5109
であっても	-10.5111
年以上	-10.5112
ビュー	-10.5112
マルチ	-10.5112
訴訟	-10.5115
然	-10.5115
の他	-10.5116
月現在	-10.5119
ディズニー	-10.512
▁かつて	-10.5121
コンビ	-10.5123
回目の	-10.5124
ハート	-10.5124
キャンパス	-10.5125
続	-10.5125
ゼロ	-10.5125
陸上	-10.5126
経路	-10.5129
律	-10.5129
一致	-10.5133
権限	-10.514
周辺の	-10.5146
バイパス	-10.5147
まつ	-10.5147
ie	-10.5149
防止	-10.5151
我	-10.5153
ファッション	-10.5154
使われている	-10.5158
似	-10.516
フラン	-10.5163
間で	-10.5165
邸	-10.5166
投稿	-10.5169
極めて	-10.517
▁〜	-10.517
基盤	-10.5172
僕	-10.5173
当局	-10.5178
の父	-10.5179
賞を受賞した	-10.518
するようになった	-10.5181
どの	-10.5182
▁1950	-10.5185
消滅	-10.5197
事例	-10.5199
上陸	-10.5201
彼女は	-10.5201
▁1982	-10.5201
に取り	-10.5203
川崎	-10.5206
ity	-10.5208
苦	-10.5213
三菱	-10.5214
を結成	-10.5214
主導	-10.5217
始める	-10.5218
自民党	-10.5218
に入社	-10.5219
栗	-10.522
中央部	-10.522
私立	-10.522
舟	-10.5221
平野	-10.5222
作品を	-10.5223
で最も	-10.5223
を描く	-10.5225
再現	-10.5226
離婚	-10.5226
初め	-10.5227
封	-10.5227
地形	-10.5228
織	-10.5229
cs	-10.5231
世紀に	-10.524
ウォー	-10.5244
ウン	-10.5245
回戦	-10.5246
人間の	-10.5249
を使用した	-10.525
競馬場	-10.525
戦艦	-10.5251
bi	-10.5251
ることになった	-10.5252
という言葉	-10.5252
いくつか	-10.5257
本体	-10.526
嶋	-10.5261
スカイ	-10.5263
北米	-10.5264
居住	-10.5265
で放送された	-10.5265
キャスト	-10.5266
に向かって	-10.5267
レール	-10.5268
右衛門	-10.5269
課程	-10.5272
特許	-10.5273
インターチェンジ	-10.5274
じん	-10.5274
父の	-10.5275
名義	-10.5275
170	-10.5277
コート	-10.5282
発明	-10.5282
号機	-10.5284
質量	-10.5284
しりつ	-10.5285
でない	-10.5286
パフォーマンス	-10.5287
韓	-10.5287
▁これが	-10.5289
▁小	-10.529
伝統	-10.5291
クラシック	-10.5294
書かれた	-10.5294
降り	-10.5296
▁ちなみに	-10.5298
二つの	-10.5302
モノ	-10.5304
tt	-10.5306
死亡した	-10.5308
ロイ	-10.531
▁ところが	-10.531
そのような	-10.531
福祉	-10.5311
は日本の	-10.5311
相撲	-10.5315
らしい	-10.5316
作られた	-10.5322
原子	-10.5323
ッカ	-10.5325
》	-10.5328
フォル	-10.5329
ものもある	-10.533
薄	-10.5331
《	-10.5332
われ	-10.5333
メガ	-10.5334
腰	-10.5336
中国の	-10.5343
聴	-10.5344
功績	-10.5344
コミュニティ	-10.5345
に出演	-10.5346
windows	-10.5349
パターン	-10.535
なかったため	-10.5354
資	-10.5359
正式	-10.5369
大将	-10.537
を出した	-10.537
ホル	-10.5376
時代には	-10.5377
指示	-10.5379
出発	-10.5384
盗	-10.5384
時代は	-10.539
ティス	-10.539
本土	-10.5391
商人	-10.5391
供	-10.5392
83	-10.5393
反発	-10.5398
操縦	-10.54
際には	-10.5401
鼻	-10.5402
損傷	-10.5402
中心部	-10.5404
レーダー	-10.5405
近年	-10.5405
のに対し	-10.5407
バッハ	-10.5408
三重県	-10.5411
南側	-10.5413
授業	-10.5413
発売された	-10.5415
シリア	-10.5418
カリフォルニア州	-10.5422
発音	-10.5423
糖	-10.5424
巨大な	-10.5424
ジェット	-10.5427
を獲得	-10.5428
ボックス	-10.543
海洋	-10.543
▁ただ	-10.5431
しようと	-10.5432
ers	-10.5436
クロー	-10.5436
紛争	-10.5437
庄	-10.5437
ピーター	-10.5439
菜	-10.5439
で初めて	-10.5443
ウー	-10.5444
存続	-10.5444
メス	-10.5446
、2019	-10.5447
笑	-10.5459
をはじめとする	-10.5461
べく	-10.5461
ストラ	-10.5462
尻	-10.5463
セー	-10.5465
がその	-10.5466
リスク	-10.5468
パイ	-10.5469
が大きく	-10.547
拒否	-10.547
の中では	-10.5473
中期	-10.5475
mb	-10.5476
があったが	-10.5477
確定	-10.5477
管轄	-10.5483
局長	-10.5488
解除	-10.5488
審	-10.5494
者に	-10.5497
五郎	-10.55
職業	-10.5505
ここで	-10.5505
クリア	-10.5506
相続	-10.5507
連勝	-10.5513
置き換え	-10.5515
君主	-10.5515
高松	-10.5518
指揮官	-10.5518
ゼン	-10.552
ーニ	-10.552
空襲	-10.552
運航	-10.5521
ギー	-10.5521
▁con	-10.5525
するよう	-10.5527
郵便局	-10.5527
いたが	-10.5531
71	-10.5531
教員	-10.5533
茎	-10.5536
アド	-10.5536
スミス	-10.5545
祭り	-10.5547
ブーム	-10.5552
ポスト	-10.5552
歳以上	-10.5552
が高く	-10.5554
宋	-10.5554
1987	-10.5554
猛	-10.5558
ガンダム	-10.5559
うえ	-10.5559
家督	-10.5561
▁1979	-10.5562
部は	-10.5562
南東	-10.5562
ライセンス	-10.5564
自分が	-10.5566
京都府	-10.5568
が設置されている	-10.557
秘	-10.5571
携帯電話	-10.5577
と呼ばれている	-10.5582
皆	-10.5582
要請	-10.5585
gt	-10.5585
海峡	-10.5586
ロゴ	-10.559
主題	-10.5591
▁se	-10.5592
かく	-10.5592
豆	-10.5596
秦	-10.5598
しゅう	-10.5603
一軍	-10.5603
レストラン	-10.5606
上がり	-10.5607
同士	-10.5611
頃に	-10.5615
らと	-10.5618
スキ	-10.5619
前半	-10.5622
知られている	-10.5622
バート	-10.5625
荷	-10.5626
ついに	-10.563
航海	-10.5631
、1998	-10.5633
偏	-10.5639
ナンバー	-10.564
線が	-10.564
▁戦後	-10.5641
蘭	-10.5642
スパイ	-10.5642
ショップ	-10.5642
堅	-10.565
vo	-10.5654
が発生し	-10.5655
ほとんどの	-10.5656
大名	-10.5657
ジェイ	-10.5658
しき	-10.5658
ピア	-10.5659
家は	-10.5662
チャート	-10.5663
▁他の	-10.5663
ton	-10.5665
ut	-10.5666
ターミナル	-10.5669
甲板	-10.567
曹	-10.5671
確立	-10.5673
させること	-10.5675
年後の	-10.5676
がこの	-10.5676
を設立	-10.5678
に含まれる	-10.568
ヤング	-10.5681
を作り	-10.5682
つまり	-10.5682
ill	-10.5682
課題	-10.5684
てん	-10.5685
時間帯	-10.5686
バリ	-10.5688
の中から	-10.5688
日付で	-10.5689
やや	-10.5692
ものがある	-10.5693
▁1981	-10.5694
1985	-10.5695
高級	-10.5696
旅団	-10.5697
捕	-10.5697
紫	-10.5697
並	-10.5698
なくなる	-10.5699
tu	-10.57
キュー	-10.5704
こく	-10.5705
の仕事	-10.5705
ドール	-10.5707
に入	-10.5708
氏は	-10.5709
不動産	-10.571
手術	-10.5712
を認め	-10.5713
向けに	-10.5714
ではあるが	-10.5716
圧力	-10.5721
寮	-10.5723
午後	-10.5725
スー	-10.5726
本編	-10.5729
起用	-10.573
財産	-10.5734
訪問	-10.5736
した場合	-10.5737
腸	-10.5738
張り	-10.5739
空母	-10.5743
疾患	-10.5744
ルイス	-10.5745
天文	-10.5746
渋谷	-10.5746
各国	-10.5747
を失った	-10.5748
に出場	-10.5749
下で	-10.5752
人工	-10.5752
山地	-10.5753
パートナー	-10.5754
▁14	-10.5755
時計	-10.5755
ソニー	-10.5756
執	-10.5763
こうした	-10.5766
、1960	-10.5767
時から	-10.5772
故郷	-10.5773
広い	-10.5773
八幡	-10.5775
art	-10.5778
の乱	-10.5787
銭	-10.5787
殺人	-10.5788
以外	-10.579
掛	-10.5792
1986	-10.5793
厳しい	-10.5794
理事長	-10.5797
られて	-10.5799
コア	-10.58
実装	-10.5801
パソコン	-10.5801
静岡	-10.5802
数多くの	-10.5803
tri	-10.5806
亡命	-10.5806
ドラフト	-10.5806
正規	-10.5808
の違い	-10.5808
を開催	-10.5809
剛	-10.5809
ナス	-10.581
収容	-10.5812
感染	-10.5813
▁n	-10.5814
、1997	-10.5814
wi	-10.5814
きゅう	-10.5815
に所属する	-10.5815
ゆき	-10.5815
▁ha	-10.5817
によっては	-10.582
一旦	-10.5822
なくなり	-10.5825
とは異なり	-10.5827
これまで	-10.5831
、1996	-10.5834
ウェスト	-10.5835
に従って	-10.5835
たる	-10.5838
人形	-10.5842
ミッション	-10.5845
lu	-10.5846
反映	-10.5847
山城	-10.5849
ッター	-10.5849
わない	-10.585
対抗	-10.5851
回数	-10.5851
ディン	-10.5854
騎兵	-10.5855
鹿児島	-10.5855
ペア	-10.5856
リニューアル	-10.5858
フォーク	-10.5864
統	-10.5866
寧	-10.5867
オンライン	-10.5871
史料	-10.5871
パッケージ	-10.5873
の高い	-10.5875
ku	-10.5876
したものである	-10.588
前期	-10.588
発電所	-10.5881
出資	-10.5884
を元に	-10.5889
一定	-10.5893
整理	-10.5893
その後も	-10.5896
pp	-10.5897
じゅう	-10.5899
教え	-10.5902
幹	-10.5905
敗戦	-10.5906
に戻り	-10.5909
ボタン	-10.5911
▁1972	-10.5911
冒険	-10.5912
休止	-10.5913
を務めていた	-10.5918
希	-10.5919
出来る	-10.5922
dr	-10.5922
半分	-10.5923
鎌倉	-10.5923
創刊	-10.5924
篇	-10.5925
広島県	-10.5927
攻略	-10.5928
官僚	-10.5928
北方	-10.5928
▁西	-10.593
直線	-10.5931
否定	-10.5933
迫	-10.5935
達成	-10.5935
に所属していた	-10.5937
に比べて	-10.5937
感情	-10.5937
校舎	-10.5939
ドライブ	-10.5941
即位	-10.5942
持つ	-10.5944
しょ	-10.5946
大学教授	-10.5946
贈	-10.5946
鑑	-10.5946
、1995	-10.5948
伝統的な	-10.595
道具	-10.595
に至った	-10.5951
軍を	-10.5952
などから	-10.5952
そこから	-10.5955
攻め	-10.5956
▁中国	-10.5956
を除いて	-10.5958
年ぶりに	-10.5958
1%	-10.5958
古くから	-10.596
時代から	-10.5962
05	-10.5964
▁13	-10.5966
揚	-10.5966
粉	-10.597
者として	-10.5971
作品である	-10.5972
に戻った	-10.5977
を構成する	-10.5977
を取る	-10.5979
遺体	-10.598
委託	-10.598
ファースト	-10.5981
怪我	-10.5983
飼育	-10.5984
伴	-10.5984
もり	-10.5986
にわたり	-10.5988
巨	-10.5992
シンガポール	-10.5992
ずに	-10.5995
金沢	-10.5995
位で	-10.5996
授	-10.5996
1945	-10.6001
に入団	-10.6003
、1994	-10.6004
なので	-10.6004
ボストン	-10.6004
はこれ	-10.6004
解消	-10.6005
アプリケーション	-10.6007
の姿	-10.6009
獄	-10.601
小さく	-10.6016
政府の	-10.6018
ディレクター	-10.6019
西武	-10.602
傘下	-10.6021
▁こうして	-10.6021
活動を	-10.6022
滅	-10.6025
困難	-10.6028
タンパク質	-10.6029
俗	-10.6032
連れ	-10.6039
を感じ	-10.604
塗装	-10.6041
新田	-10.6042
吾	-10.6043
キャンプ	-10.6044
大賞	-10.6044
ポル	-10.6046
ミリ	-10.605
素材	-10.6051
読者	-10.6052
目に	-10.6054
▁&	-10.6055
体育	-10.6056
創作	-10.6056
ブログ	-10.6059
の他に	-10.6059
以前に	-10.606
降伏	-10.6061
ソビエト連邦	-10.6064
シナリオ	-10.6067
ag	-10.6072
錦	-10.6073
係	-10.6074
は以下の通り	-10.6075
ィ	-10.6076
はすべて	-10.6077
電鉄	-10.6079
爆弾	-10.6081
▁享年	-10.6083
シェル	-10.6085
部族	-10.6089
混	-10.6089
すら	-10.6089
ごと	-10.6091
とある	-10.6092
詰め	-10.6093
に戻る	-10.6093
▁紀元前	-10.6096
自主	-10.6098
ju	-10.6098
違う	-10.6099
暮らし	-10.6101
沖縄県	-10.6101
終了後	-10.6102
鉱山	-10.6102
相談	-10.6105
されず	-10.6105
専門学校	-10.6107
を示した	-10.6107
面で	-10.611
エンド	-10.6112
奉行	-10.6115
pr	-10.6122
彼らは	-10.6123
tro	-10.6124
2%	-10.6127
合流	-10.6127
受験	-10.613
は日本	-10.6131
が特徴	-10.6133
攻	-10.6135
09	-10.6136
夜間	-10.6139
イタリアの	-10.6143
本拠地	-10.6145
補給	-10.6145
一つの	-10.6146
請求	-10.6151
るために	-10.6152
されたもの	-10.6155
司馬	-10.6156
up	-10.6157
乗客	-10.6159
1950	-10.6159
チームが	-10.6159
確率	-10.616
の意	-10.6161
っと	-10.6162
rt	-10.6162
暫定	-10.6163
の死後	-10.6164
過去の	-10.6164
若手	-10.6166
ダブル	-10.6166
もあって	-10.6169
あき	-10.617
が発表された	-10.617
日記	-10.617
ber	-10.6175
孔	-10.6176
コメント	-10.6177
クリス	-10.6178
奉	-10.6179
複合	-10.618
初回	-10.6183
存	-10.6184
河内	-10.6185
方向に	-10.6187
はなかった	-10.6189
公式戦	-10.6189
追放	-10.619
されてきた	-10.6193
漁	-10.6195
競争	-10.6196
誤	-10.6197
されるようになった	-10.6198
▁彼らは	-10.6199
ベラ	-10.62
ケット	-10.6202
の上に	-10.6204
ライバル	-10.6205
以外に	-10.6211
年代には	-10.6212
、1992	-10.6214
徒	-10.6215
を与えた	-10.6218
農民	-10.6225
岡山県	-10.6228
研	-10.6228
選挙区	-10.6234
長年	-10.6236
射撃	-10.6236
ボード	-10.6239
gu	-10.6241
が出	-10.6242
出馬	-10.6247
大会で	-10.6248
晋	-10.6248
オフィス	-10.625
▁1973	-10.6252
ドーム	-10.6253
押し	-10.6254
94	-10.6254
を迎えた	-10.6254
容	-10.6258
ep	-10.626
リアン	-10.6266
化する	-10.6269
に沿って	-10.627
子会社	-10.6273
出走	-10.6273
しゅ	-10.6274
中将	-10.6275
洗	-10.6276
グレイ	-10.6279
▁それは	-10.6279
見る	-10.6283
地図	-10.6284
前作	-10.629
船舶	-10.6291
放映	-10.6296
亭	-10.6297
デザイナー	-10.6299
土曜	-10.63
周波数	-10.6301
標	-10.6304
戦前	-10.6304
乾	-10.6305
、1989	-10.6306
に対しては	-10.6306
は当初	-10.631
発表した	-10.6317
削減	-10.6318
繁殖	-10.6321
で知られる	-10.6322
紋	-10.6322
モーター	-10.6323
欠	-10.6325
ラリー	-10.6326
所在地	-10.6327
根拠	-10.6328
、1993	-10.6329
ッティ	-10.633
▁主な	-10.6331
繁	-10.6332
ハード	-10.6332
アレ	-10.6333
が多数	-10.6334
家に	-10.6339
回戦で	-10.6342
などと	-10.6342
都道府県	-10.6342
ウィル	-10.6343
選定	-10.6344
白い	-10.6345
顕	-10.6345
のみが	-10.6347
ゴルフ	-10.6348
出版社	-10.6348
モア	-10.635
例外	-10.635
ツール	-10.6354
太田	-10.6355
ムス	-10.6355
途中で	-10.6356
rd	-10.6357
3%	-10.6359
社会的	-10.6362
欧米	-10.6363
初出場	-10.6365
癌	-10.6368
呂	-10.6368
は第	-10.6368
したのは	-10.6369
の死	-10.637
要塞	-10.6371
ラク	-10.6375
に存在する	-10.6376
に生まれた	-10.6376
ボクシング	-10.6378
ハム	-10.6379
ノース	-10.638
プール	-10.6383
早く	-10.6384
ボート	-10.6391
群馬県	-10.6396
▁1975	-10.64
賞受賞	-10.6401
テープ	-10.6402
若干	-10.6404
害	-10.6405
の一環として	-10.6409
92	-10.6409
入社	-10.6411
[	-10.6411
譲渡	-10.6412
部分は	-10.6418
が登場する	-10.6418
微	-10.6419
もなく	-10.6424
することとなった	-10.6424
炭	-10.6425
この時	-10.6425
教室	-10.6425
『』	-10.6425
貢献	-10.6425
退任	-10.6426
最初	-10.6427
縮小	-10.6427
二重	-10.6429
、1991	-10.6432
サウス	-10.6433
者である	-10.6434
テレビ番組	-10.6435
会館	-10.6435
不可能	-10.6435
国籍	-10.6438
年までに	-10.6438
わず	-10.6438
日に発売された	-10.6439
田村	-10.6444
に指定されている	-10.6445
連覇	-10.6448
暴力	-10.6449
人口は	-10.6452
ナチス	-10.6453
sd	-10.6453
たもの	-10.6455
後方	-10.6457
発電	-10.6457
原理	-10.6459
教皇	-10.6459
逃れ	-10.6459
cy	-10.6462
宮城県	-10.6463
を行うこと	-10.6464
が多かった	-10.6465
ant	-10.6466
みな	-10.6466
乗車	-10.6467
1984	-10.6468
▁1978	-10.6473
起こ	-10.6473
甘	-10.6475
子ども	-10.6476
ことによって	-10.6477
分に	-10.6479
自殺	-10.648
ものとして	-10.648
を担当	-10.6481
バレーボール	-10.6481
がいた	-10.6484
タワー	-10.6487
がん	-10.6488
周年	-10.649
ty	-10.6491
オープニング	-10.6498
線と	-10.6498
定着	-10.6498
プレス	-10.65
の位置	-10.6501
上演	-10.6502
を含め	-10.6506
木村	-10.6506
早稲田大学	-10.6507
目的で	-10.6509
フリードリヒ	-10.651
ミュ	-10.6511
市町村	-10.6511
▁sa	-10.6512
短縮	-10.6519
続け	-10.652
数々の	-10.652
フェン	-10.6523
エドワード	-10.6525
わけではない	-10.6528
ダービー	-10.653
ライター	-10.6531
航路	-10.6532
避難	-10.6532
ていて	-10.6536
支店	-10.6538
チェン	-10.6539
昔	-10.6543
ようと	-10.6543
同社の	-10.6546
ミュージカル	-10.6547
上記の	-10.6547
騎手	-10.6548
1,000	-10.655
ゴールデン	-10.6553
ゲート	-10.6559
化し	-10.6563
cl	-10.6564
宮殿	-10.6564
ターン	-10.6565
英雄	-10.6566
申	-10.6569
フライ	-10.657
事が	-10.6574
述	-10.6575
強力な	-10.6577
ストーン	-10.658
▁1971	-10.6582
妃	-10.6582
タイヤ	-10.6585
逆転	-10.6585
の関係	-10.6591
初演	-10.6594
象	-10.6594
自身も	-10.6596
ルト	-10.6597
ロイド	-10.66
拳	-10.66
電波	-10.6601
急速に	-10.6601
信頼	-10.6603
▁1976	-10.6604
▁19	-10.6606
オーディション	-10.6607
等で	-10.6609
評論家	-10.6611
の影響で	-10.6612
ニュージーランド	-10.6612
大橋	-10.6614
07	-10.6619
ビス	-10.6623
突然	-10.6631
ドラム	-10.6631
当て	-10.6634
船団	-10.6637
を出す	-10.6638
徳川	-10.6638
巻き	-10.6642
種の	-10.6643
ヒーロー	-10.6646
インドネシア	-10.6648
連携	-10.6648
岡田	-10.6649
ガード	-10.665
配給	-10.665
限り	-10.6653
飾	-10.6657
オーケストラ	-10.6658
に選出された	-10.6661
登場する	-10.6661
奏者	-10.6661
応援	-10.6662
製造された	-10.6668
町名	-10.667
ロイヤル	-10.6672
賞金	-10.6673
ティン	-10.6673
大規模	-10.6674
鹿児島県	-10.6674
という意味	-10.6676
がそれぞれ	-10.6677
埋め	-10.6677
繋	-10.6679
キル	-10.668
▁つまり	-10.6682
ment	-10.6682
戦力	-10.6683
黄色	-10.6683
眠	-10.6685
丹	-10.6685
することは	-10.6689
即	-10.6689
歳の	-10.669
bu	-10.6692
なもの	-10.6693
社名	-10.6694
chi	-10.6694
▁al	-10.6698
撃	-10.6701
行列	-10.6701
勤	-10.6701
してしまった	-10.6701
歳の時に	-10.6702
宅	-10.6702
防御	-10.6703
若者	-10.6705
面積は	-10.6706
減少	-10.6706
公表	-10.6707
メモリ	-10.6707
イス	-10.6708
グラン	-10.6709
トレーニング	-10.6711
酵素	-10.6712
近くの	-10.6714
の女性	-10.6714
バスケットボール	-10.6715
募集	-10.6718
碑	-10.672
エフ	-10.6722
の大きさ	-10.6724
の楽曲	-10.6724
食事	-10.6727
最低	-10.6728
の記録	-10.6732
になっており	-10.6734
▁mo	-10.6741
亡くなった	-10.6749
ルス	-10.6754
によるもの	-10.6756
天体	-10.6756
▁イギリス	-10.6759
回路	-10.676
左衛門	-10.6763
にあたり	-10.677
褐色	-10.6771
かり	-10.6771
リウス	-10.6772
ビール	-10.6775
ようやく	-10.6779
回収	-10.6782
天保	-10.6783
プロセス	-10.6786
中野	-10.6789
リエ	-10.679
ソル	-10.6795
だから	-10.6796
非難	-10.6797
おそらく	-10.6798
かつての	-10.6798
ユニ	-10.6803
の高さ	-10.6805
率は	-10.6806
段階で	-10.6807
ns	-10.6808
まった	-10.6809
昼	-10.681
勲章	-10.6811
年シーズン	-10.6811
解体	-10.6811
連合軍	-10.6812
国連	-10.6813
収集	-10.6814
ホン	-10.6816
▁このように	-10.6821
に伴って	-10.6822
ハイム	-10.6822
以外にも	-10.6824
赤い	-10.6825
自身は	-10.6825
?」	-10.6827
モリ	-10.6827
だという	-10.6828
、1987	-10.6829
警	-10.683
con	-10.6832
▁1974	-10.6833
したものの	-10.6836
庁舎	-10.6836
を利用する	-10.6838
に貢献した	-10.6839
将来	-10.6842
担	-10.6845
蒸気	-10.6852
美しい	-10.6854
ひと	-10.6854
ンス	-10.6855
関心	-10.6856
ノス	-10.6859
ひとり	-10.686
が始まり	-10.686
▁前作	-10.6861
恋愛	-10.6863
にとっては	-10.6863
ふく	-10.6864
町にある	-10.6865
菓子	-10.6868
地方の	-10.6868
がい	-10.6869
、1988	-10.6871
処	-10.6872
診断	-10.6873
配備	-10.6874
に成功した	-10.6874
8%	-10.6874
佳	-10.6878
▁その結果	-10.6879
インター	-10.6881
に分類される	-10.6881
日にかけて	-10.6884
音源	-10.6884
ドイツ軍	-10.6889
最近	-10.6891
ペット	-10.6892
縮	-10.6897
fi	-10.6898
なっている	-10.6898
意図	-10.6899
夫婦	-10.6903
楊	-10.6904
徹	-10.6907
機が	-10.6908
ベリー	-10.6909
装飾	-10.691
ミング	-10.6912
テス	-10.6912
バード	-10.6912
正面	-10.6913
▁pa	-10.6914
混合	-10.6914
宮崎	-10.6918
ノール	-10.692
▁1968	-10.692
流域	-10.6921
行事	-10.6921
を担当する	-10.6922
放出	-10.6923
日本国内	-10.6927
▁1969	-10.6927
sl	-10.6928
乃	-10.6929
中には	-10.693
ゼル	-10.693
の対象	-10.6931
クイズ	-10.6933
好きな	-10.6935
献	-10.6936
やはり	-10.6936
人たち	-10.6936
all	-10.6938
α	-10.6941
磨	-10.6944
構築	-10.6947
we	-10.6952
を占める	-10.6952
柏	-10.6955
療法	-10.6956
ヒトラー	-10.6956
郭	-10.6956
尺	-10.6957
襲	-10.6958
優先	-10.6959
選手として	-10.6962
の妻	-10.6962
応用	-10.6963
綿	-10.6963
著名な	-10.6964
の前に	-10.6965
武田	-10.6966
数値	-10.6966
影響力	-10.6968
dd	-10.697
をとる	-10.6972
この地域	-10.6972
用いられ	-10.6972
助手	-10.6976
▁1977	-10.6977
期に	-10.6978
モス	-10.6979
レンズ	-10.6983
は通常	-10.6983
を利用した	-10.6984
語で	-10.6984
を求め	-10.6987
フェア	-10.6988
異常	-10.6989
マガジン	-10.6989
ot	-10.6991
tra	-10.6991
に際して	-10.6992
吸	-10.6994
るように	-10.6996
同期	-10.6996
ラテン語	-10.6997
サンタ	-10.6997
疑問	-10.6998
ツェ	-10.6999
che	-10.7001
誰	-10.7004
乾燥	-10.7004
沿い	-10.7004
壇	-10.7006
市内の	-10.7007
発見された	-10.7009
シリーズの	-10.701
班	-10.7012
酸素	-10.7013
本作の	-10.7017
ことである	-10.7018
で行われる	-10.7019
哲	-10.702
停留所	-10.7021
駆け	-10.7022
に住む	-10.7024
業績	-10.7024
だん	-10.7025
変わり	-10.7026
語り	-10.7026
コムーネ	-10.7027
勤め	-10.7028
▁近年	-10.7029
4%	-10.7029
始	-10.7034
として活動	-10.7034
衝撃	-10.7035
本来の	-10.7036
司会	-10.7036
の製造	-10.7037
威	-10.7038
込	-10.7038
決勝で	-10.7041
東方	-10.7042
▁20	-10.7044
za	-10.7044
位となった	-10.7045
地位	-10.705
ナポレオン	-10.7054
に移り	-10.7054
趣味	-10.7057
インターナショナル	-10.7057
93	-10.706
容量	-10.7061
モール	-10.7061
損害	-10.7063
入手	-10.7063
研修	-10.7064
迷	-10.7066
量産	-10.7067
者たち	-10.7067
1972	-10.7068
の発展	-10.7071
7%	-10.7071
取った	-10.7073
ーノ	-10.7079
広域	-10.7081
婚	-10.7082
黒人	-10.7083
上り	-10.7084
勲	-10.7085
トーマス	-10.7086
ティック	-10.7086
動力	-10.7087
かみ	-10.7088
涼	-10.7091
の変化	-10.7096
ルド	-10.7096
結成された	-10.7097
良く	-10.7098
泊	-10.7098
どこ	-10.7098
▁1944	-10.7103
ster	-10.7104
とは異なる	-10.7105
作目	-10.7106
バンク	-10.7108
5,	-10.711
私は	-10.7112
故	-10.7112
東宝	-10.7114
富山	-10.7114
軍に	-10.7115
ig	-10.7118
▁すなわち	-10.712
nba	-10.7123
準優勝	-10.7123
羊	-10.7125
のみである	-10.7126
ウォ	-10.7129
ft	-10.7129
むしろ	-10.7131
マイクロ	-10.7131
動員	-10.7134
以外は	-10.7134
明らか	-10.7134
互いに	-10.7135
きっかけ	-10.7135
栄養	-10.7136
mg	-10.7136
上げた	-10.7138
在籍	-10.7139
突き	-10.7141
朗	-10.7147
ger	-10.7149
促進	-10.7154
育	-10.7154
やす	-10.7155
に加入	-10.7155
決議	-10.716
頂	-10.7161
6%	-10.7162
機関車	-10.7162
かもしれない	-10.7163
情報を	-10.7166
以前は	-10.7168
マラソン	-10.7168
パーソナリティ	-10.717
月刊	-10.7174
認可	-10.7175
自体は	-10.7176
ll	-10.7176
戦場	-10.7177
コム	-10.7177
少数	-10.7179
態度	-10.7184
工作	-10.7184
ぶん	-10.7185
被害者	-10.7186
使われた	-10.7187
変動	-10.7189
権を	-10.7193
スティ	-10.7194
天然	-10.7194
、1985	-10.7195
独特の	-10.7196
示す	-10.7197
保守	-10.7197
▁父は	-10.7201
将棋	-10.7201
専攻	-10.7203
1983	-10.7205
を提供する	-10.7208
アッ	-10.7211
輔	-10.7212
運賃	-10.7216
用意	-10.7217
トラブル	-10.7218
ud	-10.7219
名義で	-10.722
学名	-10.722
当日	-10.722
▁前	-10.7222
ネオ	-10.7223
葬	-10.7223
専用の	-10.7225
ができる	-10.7226
死者	-10.7226
古墳	-10.7226
クレジット	-10.7227
タッグ	-10.7227
上がる	-10.723
始まった	-10.7231
ロフ	-10.7232
何か	-10.7232
送り	-10.7232
トランス	-10.7235
意味で	-10.7241
5,000	-10.7243
が決定	-10.7247
駐	-10.725
突	-10.7251
月末	-10.7253
えい	-10.7256
、1986	-10.7257
高原	-10.7258
廃車	-10.726
を加えた	-10.726
しょうがっこう	-10.7263
庭園	-10.7263
直径	-10.7264
飛行機	-10.7266
完全な	-10.7267
vs	-10.7267
趙	-10.7268
最後	-10.7269
▁翌年	-10.7269
予	-10.727
と呼ばれていた	-10.7273
吸収	-10.7276
高速道路	-10.7276
チェコ	-10.7277
緒	-10.7278
書いた	-10.7278
対決	-10.7278
するか	-10.7279
小惑星	-10.728
mlb	-10.7281
最終的には	-10.7283
ヨン	-10.7289
1982	-10.7289
は無い	-10.7289
財団	-10.7293
訴え	-10.7296
に参戦	-10.7297
みや	-10.7298
ネン	-10.7299
ヴェー	-10.7302
駐車場	-10.7304
協議会	-10.7307
りょう	-10.7308
熊本県	-10.731
会話	-10.7313
白人	-10.7316
濃度	-10.7317
編纂	-10.7318
げん	-10.7319
を受賞	-10.732
ポンド	-10.7323
プラス	-10.7324
まい	-10.7325
下に	-10.7325
番線	-10.7326
頻繁に	-10.7329
―	-10.7329
物資	-10.733
領主	-10.7331
に所属	-10.7331
フレーム	-10.7331
に用いられる	-10.7332
位に	-10.7335
他に	-10.7336
煙	-10.7337
あなた	-10.7338
ショート	-10.7339
侵入	-10.7341
芽	-10.7341
近鉄	-10.7342
差し	-10.7343
宮廷	-10.7345
開拓	-10.7345
創造	-10.7345
プレート	-10.7345
作中	-10.7347
通貨	-10.7348
上部	-10.7349
総裁	-10.7349
者を	-10.7352
スリー	-10.7352
したい	-10.7355
才能	-10.7355
▁di	-10.7356
登場した	-10.7358
歴史的	-10.7359
エンディング	-10.736
を開始し	-10.7362
はそれぞれ	-10.7363
my	-10.7364
中島	-10.7365
ロシアの	-10.7367
でん	-10.7367
衰退	-10.737
▁北海道	-10.7372
用いられた	-10.7373
午前	-10.7373
国内で	-10.7373
いていた	-10.7373
bc	-10.7374
予測	-10.7375
物を	-10.7375
を含めた	-10.7375
種目	-10.7376
▁以下の	-10.7377
長野	-10.7379
へ向かう	-10.7381
チー	-10.7382
爆	-10.7382
メタル	-10.7382
ものに	-10.7386
恒	-10.7387
▁これを	-10.7389
在位	-10.7389
平方マイル	-10.739
効	-10.7392
の設計	-10.7395
吹き	-10.7395
テイ	-10.7396
イラク	-10.7399
▁したがって	-10.7401
宇都宮	-10.7405
天皇の	-10.7405
戦術	-10.7405
sta	-10.7406
水道	-10.7407
ファミリー	-10.7408
学問	-10.7409
映	-10.741
報告書	-10.7413
艦長	-10.7413
ストン	-10.7414
中断	-10.7416
なかったが	-10.7417
号は	-10.7418
が発売された	-10.7419
ng	-10.7421
91	-10.7421
周年記念	-10.7422
受信	-10.7425
を見た	-10.743
1975	-10.7438
1969	-10.7438
▁やがて	-10.7439
競	-10.7439
の原因	-10.7439
岐阜	-10.744
1979	-10.7445
離れた	-10.7446
結び	-10.7446
順に	-10.7447
保管	-10.7449
ニュ	-10.745
弦	-10.7451
コンテンツ	-10.7451
ze	-10.7452
▁通常	-10.7452
▁多くの	-10.7453
ためである	-10.7453
巨大	-10.7454
以下のような	-10.7455
ガール	-10.7456
署	-10.7457
進学	-10.7458
うた	-10.7468
既	-10.7469
既存の	-10.7469
到着	-10.747
増大	-10.7472
次々と	-10.7473
行く	-10.7473
郵便	-10.7475
ることとなった	-10.7476
df	-10.7477
署名	-10.7479
阪	-10.7481
ゾン	-10.7483
を挙げた	-10.7484
積極的に	-10.7491
弟の	-10.7492
ってきた	-10.7494
イェ	-10.7499
出現	-10.75
tr	-10.7501
に対応	-10.7503
スパ	-10.7506
らい	-10.7509
因	-10.751
バレー	-10.751
民国	-10.7511
享	-10.7512
目の	-10.7512
年までは	-10.7513
武士	-10.7513
論争	-10.7514
岩手県	-10.7515
循環	-10.7515
日本テレビ	-10.7516
せた	-10.7517
としていた	-10.7517
の下に	-10.752
といえる	-10.7524
課長	-10.7526
版の	-10.753
男爵	-10.753
lan	-10.7531
売却	-10.7533
大衆	-10.7536
殺し	-10.7536
レート	-10.7537
呼称	-10.7539
同時期に	-10.7542
琴	-10.7542
聖書	-10.7547
起源	-10.755
限界	-10.755
shi	-10.755
中華民国	-10.7551
開放	-10.7551
▁父	-10.7552
アレンジ	-10.7555
ルン	-10.7556
いずれ	-10.7556
は現在	-10.7557
サンフランシスコ	-10.7558
とり	-10.7561
走り	-10.7564
に渡り	-10.7565
▁これらは	-10.7568
死去した	-10.7568
著作権	-10.7568
を続け	-10.7568
方が	-10.7571
アール	-10.7573
願い	-10.7575
04	-10.7575
所属の	-10.7577
戦士	-10.758
年ぶりの	-10.7582
蛇	-10.7583
はまだ	-10.7584
やすく	-10.7585
一本	-10.7585
プロモーション	-10.7586
▁o	-10.7587
の生産	-10.7588
蓋	-10.7594
車線	-10.7594
プレーオフ	-10.7595
上級	-10.7596
もない	-10.7597
日付	-10.7597
開催された	-10.7598
両国	-10.7601
附属	-10.7602
ナショナル	-10.7605
性を	-10.7605
側が	-10.7606
気象	-10.7607
em	-10.7607
▁更に	-10.7608
ドラゴン	-10.7613
ッサ	-10.7618
land	-10.7618
が中心	-10.7621
宝塚	-10.7622
限	-10.7623
地区の	-10.7625
ファイナル	-10.7629
は以下の	-10.763
えん	-10.7631
シオ	-10.7632
を決めた	-10.7635
を起こす	-10.7635
ob	-10.7637
モンスター	-10.7638
ヴァイ	-10.7639
磁	-10.7639
コントロール	-10.7642
提唱	-10.7642
北陸	-10.7643
ドロ	-10.7653
キャンペーン	-10.7654
松山	-10.7659
考え方	-10.7661
琉球	-10.7663
築	-10.7664
夫妻	-10.7666
たこと	-10.7666
禅	-10.7668
拝	-10.7669
前田	-10.7669
江戸時代	-10.767
送信	-10.7673
ウム	-10.7674
1968	-10.7674
披露	-10.7675
アルコール	-10.7675
激しく	-10.7676
は再び	-10.7676
社が	-10.7676
経済学	-10.7678
関与	-10.7678
命中	-10.7678
マイク	-10.7678
、1984	-10.7678
隣接する	-10.7679
法案	-10.768
といい	-10.7683
クルー	-10.7684
干	-10.7686
十二	-10.7688
認められ	-10.769
定数	-10.769
文章	-10.7692
囲	-10.7692
映画監督	-10.7694
努力	-10.7696
との間で	-10.7697
しようとした	-10.7704
週刊	-10.7705
▁1967	-10.7706
▁1964	-10.7709
周期	-10.771
犯人	-10.7712
活躍した	-10.7713
立候補	-10.7715
場合に	-10.7718
大西洋	-10.7719
名古屋市	-10.772
フィート	-10.772
02	-10.7724
を達成	-10.7728
タンク	-10.773
公国	-10.7732
▁1940	-10.7733
磯	-10.7733
敷地	-10.7736
保持	-10.7737
けんどう	-10.7738
前方	-10.7739
を達成した	-10.7739
イギリス軍	-10.7741
を形成する	-10.7742
有力	-10.7744
ギア	-10.7744
限りで	-10.7746
開業した	-10.7747
編入	-10.7748
が発生した	-10.7749
フィリップ	-10.7752
人数	-10.7753
南海	-10.7753
を見る	-10.7755
使用され	-10.7757
が強く	-10.7759
制覇	-10.776
南方	-10.7761
アプリ	-10.7761
警察署	-10.7761
狭	-10.7762
近くに	-10.7762
だったため	-10.7763
するように	-10.7763
エク	-10.7764
当主	-10.7769
クレイ	-10.777
狂	-10.7771
に入って	-10.7777
鎖	-10.7784
aaa	-10.7785
勝負	-10.7787
不安	-10.7792
1973	-10.7793
留学	-10.7793
移住	-10.7794
銘	-10.7796
ヒロイン	-10.7799
兆	-10.78
接近	-10.7801
状に	-10.7803
今回	-10.7804
を中心とする	-10.7805
グループの	-10.7807
実践	-10.7807
製作された	-10.7812
1981	-10.7814
ウェブ	-10.7815
詳細は	-10.7817
発着	-10.782
dj	-10.782
任意の	-10.7822
魏	-10.7823
りゅう	-10.7824
アカ	-10.7825
嵐	-10.7825
それまでの	-10.7826
発掘	-10.7826
求	-10.7826
観音	-10.7827
らなかった	-10.7827
大坂	-10.7828
前年	-10.7829
▁mi	-10.783
を受賞した	-10.783
セルビア	-10.783
ておらず	-10.7835
きん	-10.7836
卓	-10.7839
キス	-10.7841
ストロ	-10.7847
付近に	-10.7847
國	-10.7847
dna	-10.785
してから	-10.7851
と言い	-10.7854
に行く	-10.7854
ないこと	-10.7859
場所に	-10.7859
ティア	-10.7859
複雑な	-10.7861
フロ	-10.7861
リク	-10.7862
終戦	-10.7864
山梨県	-10.7866
ae	-10.787
猿	-10.7871
ea	-10.7875
dc	-10.7876
和田	-10.7878
ようになっている	-10.7878
ランク	-10.7879
ok	-10.7879
を果たし	-10.788
本種	-10.7881
経由	-10.7881
修復	-10.7884
基本的な	-10.7885
外観	-10.7887
世界の	-10.7887
ナウ	-10.7889
附	-10.7893
オスマン帝国	-10.7896
衆議院議員	-10.7901
山頂	-10.7901
文化財	-10.7902
合戦	-10.7903
sm	-10.7904
化合物	-10.7904
採用された	-10.7905
*	-10.7905
助教授	-10.7906
入場	-10.7907
の弟	-10.7907
るという	-10.7909
キロメートル	-10.7909
を続けた	-10.7909
ジャクソン	-10.791
詳細	-10.7911
続ける	-10.7912
ブルース	-10.7913
感覚	-10.7914
が発生する	-10.7915
uss	-10.7915
定理	-10.7916
正式な	-10.7916
移植	-10.7917
共有	-10.7919
1974	-10.792
トス	-10.792
らせ	-10.7922
澄	-10.7924
童	-10.7924
成人	-10.7924
同意	-10.7928
ズム	-10.7929
北側	-10.7931
を採用した	-10.7933
軟	-10.7935
と異なり	-10.7937
天正	-10.7943
依存	-10.7943
怒り	-10.7944
130	-10.7946
第四	-10.7948
に入ると	-10.7948
が無い	-10.7949
ポップ	-10.7949
ーク	-10.795
専門家	-10.7951
9%	-10.7953
新設	-10.7953
立地	-10.7953
悪魔	-10.7954
1978	-10.7956
コンテスト	-10.7957
黒い	-10.7957
ルーマニア	-10.7959
針	-10.7963
懸念	-10.7963
ギャ	-10.7964
品種	-10.7965
っていない	-10.7966
配布	-10.7969
登場人物	-10.7969
唱	-10.7974
hd	-10.7974
救助	-10.7974
訓	-10.7976
プロイセン	-10.7977
rpg	-10.7979
噂	-10.7981
駅で	-10.7982
朝日	-10.7983
晩	-10.7983
という名称	-10.7984
溶	-10.7986
06	-10.7986
品質	-10.7987
長距離	-10.7988
代表的な	-10.7994
淳	-10.7994
及	-10.7994
od	-10.7998
サイン	-10.8002
乗り入れ	-10.8004
経済的	-10.8005
を図る	-10.8005
に属し	-10.8006
闘争	-10.8007
終点	-10.8009
指揮者	-10.8009
認知	-10.801
ボーナス	-10.8012
コマ	-10.8012
会計	-10.8017
死んだ	-10.8018
従業員	-10.8019
が存在し	-10.802
いう	-10.8021
ローン	-10.8021
交易	-10.8025
変身	-10.8026
いなかった	-10.803
ダイヤ	-10.8031
優勝した	-10.8032
量は	-10.8033
刺激	-10.8035
からである	-10.8035
に参加する	-10.8035
横須賀	-10.8036
ゴル	-10.8036
ルーム	-10.8037
ウェブサイト	-10.8037
何度も	-10.8037
買	-10.8039
違反	-10.804
芸能	-10.804
ラスト	-10.8041
であるという	-10.8044
後継者	-10.8045
込まれ	-10.8046
を残した	-10.8048
コフ	-10.805
寄付	-10.805
ようとした	-10.8054
アウ	-10.8054
を務めている	-10.8056
から約	-10.8061
液体	-10.8067
▁日本の	-10.8069
を機に	-10.8072
朝の	-10.8072
▁三	-10.8076
に渡って	-10.8077
アブ	-10.8077
色の	-10.8077
啓	-10.8077
リーグの	-10.8083
建立	-10.8084
司教	-10.8084
貝	-10.8085
外側	-10.8085
コメディ	-10.8086
竣工	-10.8087
ゼー	-10.8089
飛行場	-10.8091
そのうち	-10.8093
設立された	-10.8094
タイプの	-10.8094
東京大学	-10.8095
やり	-10.8096
一切	-10.8098
タクシー	-10.8098
エール	-10.8099
論理	-10.8101
1909	-10.8102
翌日	-10.8102
阪急	-10.8106
チベット	-10.8107
作った	-10.8109
へ移籍	-10.8111
、1983	-10.8112
を発売	-10.8112
裂	-10.8118
▁ho	-10.8121
クライ	-10.8121
任命	-10.8123
エリザベス	-10.8126
しなければならない	-10.8126
祝	-10.8128
質問	-10.8129
の末	-10.8129
tko	-10.8129
にくい	-10.813
ズは	-10.8133
どちら	-10.8133
内側	-10.8136
大韓民国	-10.8137
リル	-10.8137
託	-10.8138
全面	-10.814
売り上げ	-10.814
たく	-10.8141
ディス	-10.8142
パック	-10.8144
に達した	-10.8144
を掲げ	-10.8144
▁1941	-10.8145
ステップ	-10.8145
トイレ	-10.8147
松平	-10.8149
アニ	-10.8149
たちに	-10.815
調べ	-10.815
何らかの	-10.8151
不正	-10.8155
名誉教授	-10.8157
提示	-10.8158
監	-10.816
得意	-10.8163
青森県	-10.8164
ヴェン	-10.8165
描かれた	-10.8165
小野	-10.8166
実力	-10.8166
ランプ	-10.8167
崇	-10.8168
電池	-10.8169
が強い	-10.8171
に挑戦	-10.8172
1976	-10.8172
前身	-10.8173
当初の	-10.8173
バラエティ番組	-10.8174
年目	-10.8175
処刑	-10.8175
米軍	-10.8176
毎	-10.8176
室内	-10.8177
那	-10.8177
コマンド	-10.8177
研究会	-10.8177
コピー	-10.8178
オプション	-10.8179
▁他に	-10.8184
▁1966	-10.8186
続いて	-10.8192
鋼	-10.8195
結果として	-10.8196
ンは	-10.8196
、1950	-10.8196
の販売	-10.8197
スコア	-10.8201
マール	-10.8201
日本に	-10.8203
共和党	-10.8205
駆動	-10.8206
する場合	-10.8207
mer	-10.8207
ペイ	-10.8208
生まれた	-10.8209
1971	-10.8211
提携	-10.8216
講談社	-10.8216
、1982	-10.8218
tor	-10.822
チェーン	-10.8221
が設置され	-10.8224
を持たない	-10.8225
特殊な	-10.8226
丘陵	-10.8226
代理	-10.8227
才	-10.8228
出演した	-10.8232
▁たとえば	-10.8233
ではなかった	-10.8243
発生する	-10.8245
トヨタ	-10.8246
大人	-10.8246
電源	-10.8248
人権	-10.8251
朝廷	-10.8253
漫画家	-10.8253
シング	-10.8259
を卒業	-10.8261
恒星	-10.8263
備	-10.8264
さか	-10.8264
ドゥー	-10.8266
の時代	-10.8268
▁1965	-10.8268
地域で	-10.827
務め	-10.8271
▁フランス	-10.8272
ent	-10.8274
ゾーン	-10.8275
キューバ	-10.8277
ラップ	-10.8278
の問題	-10.828
切り替え	-10.8282
平安時代	-10.8284
と言った	-10.8284
世紀後半	-10.8285
の首都	-10.8286
ねん	-10.8287
かない	-10.8288
完了	-10.8291
スコット	-10.8293
と結婚	-10.8294
改装	-10.8295
古く	-10.8297
ニス	-10.8298
▁以下は	-10.8298
出版された	-10.8299
後任	-10.8299
いき	-10.8302
上流	-10.8302
機動	-10.8303
ていたため	-10.8303
操	-10.8307
入口	-10.831
四郎	-10.8312
ive	-10.8313
ダウンロード	-10.8314
版では	-10.8315
を受けている	-10.8315
免	-10.8316
codice	-10.8319
使う	-10.8319
hp	-10.8319
ガリ	-10.8319
各地	-10.8322
国防	-10.8322
終盤	-10.8323
が少ない	-10.8324
売上	-10.8324
見られ	-10.8325
ときは	-10.8325
通勤	-10.8327
ray	-10.8328
高山	-10.8328
を扱う	-10.8333
ロマン	-10.8333
に必要な	-10.8337
探	-10.8337
事項	-10.8338
が設置された	-10.8339
互	-10.8339
出演者	-10.8339
に大きな	-10.834
協議	-10.8341
た後	-10.8343
▁1943	-10.8343
栃木県	-10.8344
ff	-10.8344
ることで	-10.8348
を率いて	-10.835
世紀末	-10.8351
メタ	-10.8352
高田	-10.8353
建国	-10.8353
点で	-10.8356
グー	-10.8357
砲撃	-10.8357
を起こし	-10.8358
リャ	-10.8358
03	-10.8358
見た	-10.8359
途	-10.8361
忍	-10.8361
踊り	-10.8362
近郊	-10.8363
▁on	-10.8364
の立場	-10.8364
あん	-10.8369
放送開始	-10.8369
ことや	-10.837
視聴者	-10.8372
まえ	-10.8372
プス	-10.8373
直前に	-10.8375
さま	-10.8375
刊行された	-10.8376
タス	-10.8376
ビーチ	-10.8377
時台	-10.8379
下流	-10.8381
達は	-10.8381
密度	-10.8381
くん	-10.8381
司令	-10.8381
悲	-10.8383
いった	-10.8383
ak	-10.8386
替	-10.8386
触	-10.8386
水上	-10.8387
淵	-10.8387
騒動	-10.839
110	-10.839
の概念	-10.8393
本格的な	-10.8395
ーム	-10.8398
われた	-10.8399
▁=	-10.84
ぼう	-10.8403
pi	-10.8404
エロ	-10.8405
▁本作は	-10.8406
先の	-10.8407
想定	-10.8407
的で	-10.8408
day	-10.8409
グラフ	-10.8409
参加者	-10.8409
した際に	-10.841
初登場	-10.841
えない	-10.8411
ブルガリア	-10.8411
敷設	-10.8412
出撃	-10.8416
台風	-10.8418
一緒に	-10.8418
修行	-10.8418
に見られる	-10.8419
闇	-10.8419
士官	-10.842
拓	-10.842
創設された	-10.8422
愛称	-10.8422
可能である	-10.8422
が大きい	-10.8422
硬	-10.8426
▁pro	-10.8428
多摩	-10.8434
都合	-10.8436
起点	-10.8436
キャスター	-10.8437
mar	-10.8437
使用されている	-10.8437
フェスティバル	-10.8438
施	-10.8438
隊長	-10.8441
ワーク	-10.8441
ny	-10.8442
理想	-10.8442
授与	-10.8444
発展した	-10.8444
バランス	-10.8444
を迎え	-10.8446
原子力	-10.8447
講	-10.8448
代表作	-10.8448
化石	-10.8448
ともいう	-10.8449
バウ	-10.8451
mac	-10.8452
わけ	-10.8452
と改称	-10.8454
空中	-10.8454
屈	-10.8455
ところで	-10.8455
救援	-10.8457
と結婚した	-10.8459
おき	-10.8461
庵	-10.8464
に関わる	-10.8464
漁業	-10.8465
滞在	-10.8466
幅広い	-10.8467
続き	-10.8468
ノイ	-10.8471
彼を	-10.8473
中でも	-10.8473
最中	-10.8473
快速	-10.8473
ようである	-10.8473
先頭	-10.8474
衣装	-10.8474
養子	-10.8474
恋人	-10.8474
警戒	-10.8475
の流れ	-10.8478
シャル	-10.8481
前面	-10.8481
統制	-10.8482
ジョンソン	-10.8483
冒頭	-10.8483
に所在する	-10.8484
を歴任	-10.849
叔父	-10.849
曲が	-10.8491
観光客	-10.8492
積み	-10.8493
捨て	-10.8494
秋田県	-10.8495
カンパニー	-10.8497
の舞台	-10.8498
を記録し	-10.8502
方程式	-10.8508
▁1942	-10.8508
pro	-10.851
泥	-10.8512
であることを	-10.8514
名で	-10.8514
人種	-10.8516
ンド	-10.8518
を使い	-10.8519
番目に	-10.852
フロー	-10.8522
ちゅう	-10.8523
勅	-10.8524
蘇	-10.8525
容易に	-10.8526
山形	-10.8527
▁彼女は	-10.8528
皇后	-10.8528
国外	-10.853
山口県	-10.8531
les	-10.8533
潜	-10.8533
世紀初頭	-10.8535
先生	-10.8535
知られ	-10.8537
絶滅	-10.8539
染	-10.8539
act	-10.854
数十	-10.8542
水路	-10.8543
回衆議院議員総選挙	-10.8545
又	-10.8546
_2	-10.8547
たま	-10.855
ron	-10.8553
アメリカ海軍	-10.8556
るもの	-10.8556
準決勝	-10.8557
昆虫	-10.8559
前から	-10.856
部下	-10.8563
pu	-10.8564
dy	-10.8565
消	-10.8566
に追い	-10.8566
姿を	-10.8567
に及ぶ	-10.8568
フト	-10.857
第一次	-10.857
割り	-10.8572
視聴率	-10.8572
爆撃	-10.8575
城主	-10.8576
村上	-10.8576
▁南	-10.8577
校長	-10.8577
nk	-10.8579
の運行	-10.8584
高校生	-10.8586
ッパー	-10.8586
本格的に	-10.8587
各地で	-10.8588
堺	-10.8588
残る	-10.8588
鍵	-10.8589
クロアチア	-10.8591
大量の	-10.8591
は他の	-10.8591
しさ	-10.8592
ジャーナリスト	-10.8593
車種	-10.8594
建築家	-10.8594
に達し	-10.8598
くなる	-10.8598
瑞	-10.8598
▁japan	-10.86
長らく	-10.86
鉱	-10.8602
上がった	-10.8604
ツィ	-10.8607
比例	-10.861
ようとする	-10.8614
隊員	-10.8614
付けられた	-10.8616
終結	-10.8618
を求めた	-10.8618
鳳	-10.8621
▁no	-10.8622
他にも	-10.8622
つつある	-10.8625
アナログ	-10.8628
衛生	-10.8628
をして	-10.8629
の利用	-10.8631
中隊	-10.8632
左翼	-10.8635
ミラー	-10.8637
さき	-10.8637
を挙げる	-10.8638
オーナー	-10.8638
市川	-10.8638
余り	-10.8639
塁	-10.8641
必ず	-10.8641
車内	-10.8643
共演	-10.8643
du	-10.8648
マグ	-10.8649
super	-10.865
ぜん	-10.8651
年度の	-10.8652
ヤマ	-10.8656
冬季	-10.866
はあまり	-10.8662
mf	-10.8664
払い	-10.8665
部隊は	-10.8665
くら	-10.8666
昇進	-10.8672
の活躍	-10.8672
来る	-10.8675
新型	-10.8675
で生まれた	-10.8677
第一次世界大戦	-10.8678
はこれを	-10.8679
ld	-10.8679
を主	-10.8679
旭	-10.8679
著者	-10.868
ヒュー	-10.868
模型	-10.868
珍しい	-10.8681
が挙げられる	-10.8682
ミュンヘン	-10.8682
利用できる	-10.8684
この曲	-10.8684
▁1963	-10.8685
注目	-10.8685
フリ	-10.8686
の導入	-10.8687
所蔵	-10.8688
一体	-10.8689
耐	-10.869
することになる	-10.869
検出	-10.869
着陸	-10.8692
明治時代	-10.8694
答え	-10.8694
▁昭和	-10.8694
を理由に	-10.8695
曲線	-10.8696
手掛け	-10.8697
をあげ	-10.8701
シアター	-10.8702
口径	-10.8703
と考え	-10.8704
変形	-10.8705
我々	-10.8707
1967	-10.8708
藩の	-10.8709
騎士	-10.8709
であることから	-10.871
▁1930	-10.871
せずに	-10.8711
族の	-10.8711
はほぼ	-10.8712
エクス	-10.8714
下記の	-10.8714
」・「	-10.8715
参入	-10.8716
地中海	-10.8717
魅力	-10.8718
手を	-10.8718
旧制	-10.872
化され	-10.872
特集	-10.8721
釣り	-10.8722
列車が	-10.8724
手に	-10.8725
辛	-10.8726
甥	-10.8727
世界遺産	-10.8728
1964	-10.8729
めて	-10.873
年代以降	-10.873
パネル	-10.8731
イスラム	-10.8733
配慮	-10.8734
に次いで	-10.8735
セミ	-10.8737
を多く	-10.8738
僅か	-10.8744
、1972	-10.8744
電気鉄道	-10.8745
分散	-10.8745
洪水	-10.8746
公立	-10.8747
出た	-10.8747
▁東京都出身	-10.8747
などでは	-10.8747
胡	-10.8747
討ち	-10.8748
用いられている	-10.875
秘書	-10.875
はず	-10.8758
コンクール	-10.8761
を学び	-10.8766
土曜日	-10.8766
無く	-10.8767
元禄	-10.8767
を出し	-10.8769
二次	-10.8769
ルズ	-10.8769
斗	-10.8773
を示し	-10.8774
平面	-10.8775
▁li	-10.8776
魚雷	-10.8778
競走馬	-10.8778
チャレンジ	-10.8779
ホールディングス	-10.8779
両方	-10.878
▁以下	-10.878
クリスマス	-10.8787
とはいえ	-10.8788
この地	-10.8789
間もなく	-10.8789
が初めて	-10.879
ケーブル	-10.8791
直後	-10.8791
したことで	-10.8792
発売されている	-10.8792
直後の	-10.8793
抗争	-10.8795
lp	-10.88
を破り	-10.8801
終了した	-10.8801
と契約	-10.8801
身分	-10.8802
と言って	-10.8802
cr	-10.8806
の音楽	-10.8806
1977	-10.8812
の多い	-10.8813
圧縮	-10.8813
階段	-10.8815
日曜	-10.8816
ユナイテッド	-10.8817
ヨハン	-10.8824
しかも	-10.8824
後部	-10.8825
文芸	-10.8829
その後の	-10.8829
継ぎ	-10.883
通常は	-10.8832
ちゃ	-10.8835
1904	-10.8836
ことが多く	-10.884
体の	-10.8841
その後は	-10.8841
函館	-10.8844
続いた	-10.8844
の両方	-10.8847
のもとで	-10.885
辰	-10.8851
武蔵	-10.8851
que	-10.8851
演説	-10.8853
水準	-10.8854
ハーン	-10.8855
シュタイン	-10.8855
繰り	-10.8857
シュー	-10.8857
進歩	-10.8858
線を	-10.8858
▁0	-10.8859
▁同じ	-10.886
墓地	-10.886
、1979	-10.886
戦国時代	-10.8861
選ばれた	-10.8861
を学ぶ	-10.8861
小倉	-10.8863
陥落	-10.8865
明け	-10.8868
▁ドイツ	-10.8869
風景	-10.887
簡易	-10.8872
アラン	-10.8872
介入	-10.8873
▁so	-10.8874
▁world	-10.8876
キック	-10.8876
虚	-10.8877
タール	-10.8877
ユーロ	-10.8878
福井	-10.8881
後退	-10.8881
単語	-10.8885
将校	-10.8887
融	-10.8889
登場している	-10.889
遊び	-10.8892
独占	-10.8894
は全	-10.8894
退職	-10.8896
hu	-10.8897
月にかけて	-10.8898
になること	-10.89
を記録	-10.89
枚の	-10.8902
グラム	-10.8905
目を	-10.8905
1890	-10.8906
年連続	-10.8907
にわたる	-10.891
大分	-10.8911
条例	-10.8912
証券	-10.8913
を表明	-10.8914
推	-10.8914
辻	-10.8915
の基礎	-10.8915
徳島	-10.8918
るべき	-10.8919
れん	-10.892
は同じ	-10.8921
晩年	-10.8922
岡崎	-10.8924
中核	-10.8924
の指導	-10.8924
管区	-10.8925
であって	-10.8926
▁このほか	-10.8927
回大会	-10.8927
ギン	-10.8929
ある程度	-10.8929
ったり	-10.8929
早い	-10.893
有機	-10.8932
チア	-10.8933
7,	-10.8935
物理	-10.8936
リトアニア	-10.8937
ガラ	-10.8939
現行	-10.8941
引退した	-10.8943
バイオ	-10.8945
2,000	-10.8945
レーシング	-10.895
征	-10.895
ハウ	-10.8951
技術者	-10.8951
歌唱	-10.8953
ハラ	-10.8954
変わった	-10.8955
儀式	-10.8955
改めて	-10.8955
ラジオ番組	-10.8956
と述べ	-10.8958
差別	-10.896
▁最初の	-10.8961
先輩	-10.8962
と言われ	-10.8962
くらい	-10.8962
出演している	-10.8963
鐘	-10.8963
の長さ	-10.8963
比率	-10.8963
バッ	-10.8965
借	-10.8965
に師事	-10.8965
停車	-10.8966
をもとに	-10.8967
探偵	-10.8968
ないように	-10.8969
を通る	-10.897
▁この頃	-10.897
北西部	-10.8971
ction	-10.8971
か所	-10.8973
▁当	-10.8974
野村	-10.8974
複雑	-10.8974
炉	-10.8976
淡	-10.8977
五輪	-10.8979
嫌	-10.898
代藩主	-10.8981
優秀	-10.8981
、1981	-10.8981
mu	-10.8982
雰囲気	-10.8982
松竹	-10.8986
にする	-10.8986
取る	-10.899
フィル	-10.8991
船体	-10.8992
if	-10.8992
個別	-10.8994
金曜	-10.8994
ice	-10.8995
した際	-10.8995
子供たち	-10.8995
ないため	-10.8997
辞職	-10.8998
大野	-10.9002
残っている	-10.9002
検索	-10.9003
かす	-10.9003
レッ	-10.9003
削	-10.9007
の子孫	-10.9008
タッチ	-10.9008
筒	-10.9008
不満	-10.9008
end	-10.9012
1924	-10.9012
の増加	-10.9014
技法	-10.902
に再	-10.9021
box	-10.9023
、1975	-10.9023
壊	-10.9025
上田	-10.9026
訴	-10.9026
nt	-10.9027
込め	-10.9028
側から	-10.9029
脈	-10.9031
ジオ	-10.9032
県内	-10.9039
物理学	-10.9041
▁本名は	-10.9041
建設された	-10.9042
強さ	-10.9045
改札	-10.9045
ヴィルヘルム	-10.9045
役者	-10.9047
会社の	-10.9048
緑色	-10.9051
ほとんどが	-10.9052
緩和	-10.9053
ース	-10.9053
長崎県	-10.9053
行われていた	-10.9054
りん	-10.9054
述べている	-10.9056
1940	-10.9056
発足した	-10.9056
設	-10.9057
いん	-10.9057
と一緒に	-10.9058
活性化	-10.9059
内には	-10.9062
ついた	-10.9063
まもなく	-10.9063
遺産	-10.9067
を設立し	-10.9069
ヴァイオリン	-10.907
原料	-10.907
現れ	-10.9072
合わせて	-10.9072
イースト	-10.9073
結晶	-10.9075
実在	-10.9075
制作された	-10.9075
を迎える	-10.9076
籠	-10.9077
戦死	-10.9078
ワイド	-10.9079
得られる	-10.9081
霧	-10.9081
山崎	-10.9082
コウ	-10.9082
出来ない	-10.9082
ならない	-10.9083
▁同時に	-10.9084
建造物	-10.9085
王位	-10.9088
要望	-10.9088
町内	-10.9089
第二次	-10.9089
知られる	-10.9089
測	-10.9093
も同様	-10.9093
低迷	-10.9094
しようとする	-10.9099
生息	-10.9099
gs	-10.9101
最新	-10.9104
まったく	-10.9105
マックス	-10.9107
する必要がある	-10.911
チリ	-10.9112
特別な	-10.9113
生放送	-10.9114
全線	-10.9114
を用い	-10.9115
コミックス	-10.9116
にいる	-10.9116
返し	-10.9116
進む	-10.9117
かつては	-10.9119
味方	-10.912
脚本家	-10.9122
削除	-10.9124
中退	-10.9125
おく	-10.9125
カフェ	-10.913
する形で	-10.9131
呼	-10.9132
▁結局	-10.9132
中国語	-10.9133
全員が	-10.9133
大会では	-10.9135
為に	-10.9135
日常	-10.9138
膝	-10.9139
残った	-10.914
重複	-10.9141
懐	-10.9142
ばん	-10.9143
マネージャー	-10.9146
下部	-10.9146
トリー	-10.9147
さず	-10.9148
複	-10.9152
ダブルス	-10.9153
に代わって	-10.9153
日中	-10.9153
テク	-10.9155
の成績	-10.9156
客車	-10.9156
婦	-10.9157
渡し	-10.9158
三河	-10.9159
沿線	-10.9159
に存在した	-10.9159
ばら	-10.9161
十分な	-10.9161
悟	-10.9164
規模の	-10.9166
1903	-10.9166
権威	-10.9167
に対応する	-10.9169
後には	-10.9171
公爵	-10.9172
閣	-10.9173
チョウ	-10.9177
の自由	-10.9178
は同	-10.9178
市に	-10.918
橋本	-10.9183
ist	-10.9183
応募	-10.9185
内戦	-10.9186
一時期	-10.9186
、1976	-10.9188
ほん	-10.9189
金曜日	-10.919
コロンビア	-10.919
幻	-10.9191
映画化	-10.9191
駆	-10.9191
を獲得し	-10.9193
を送り	-10.9194
元々	-10.9194
例として	-10.9195
責任者	-10.9195
聞	-10.9196
ならびに	-10.9197
ラジ	-10.9199
シネマ	-10.9199
に貢献	-10.9202
の調査	-10.9202
団地	-10.9205
当地	-10.9206
に勤務	-10.9207
1927	-10.9207
gm	-10.9207
ana	-10.9209
val	-10.921
日々	-10.9212
匹	-10.9215
の声	-10.9216
皮膚	-10.9216
▁1962	-10.9218
に達する	-10.9218
に続く	-10.9219
フェリー	-10.922
ary	-10.9221
序	-10.9223
別名	-10.9223
含まれ	-10.9224
跡地	-10.9229
選手権大会	-10.9231
出場した	-10.9232
殆ど	-10.9232
▁le	-10.9233
min	-10.9233
都市圏	-10.9233
の最初の	-10.9235
でデビュー	-10.9239
の称号	-10.9239
馬場	-10.924
tokyo	-10.924
wbc	-10.9241
嗣	-10.9242
候補者	-10.9243
yo	-10.9243
den	-10.9243
変数	-10.9245
克	-10.9245
創建	-10.9245
使用されていた	-10.9247
に位置している	-10.9247
港湾	-10.9248
ウォーター	-10.9248
ヒー	-10.9249
テレビ朝日	-10.9249
プリンス	-10.9252
民衆	-10.9253
振動	-10.9253
引用	-10.9254
顧客	-10.9255
の主要	-10.9257
▁以降	-10.9259
繊維	-10.926
キア	-10.9261
場所で	-10.9261
幾	-10.9261
クール	-10.9261
亮	-10.9261
リオン	-10.9264
といわれている	-10.9265
しかった	-10.9268
見え	-10.9269
組み合わせ	-10.9271
と呼び	-10.9275
周り	-10.9276
、1978	-10.9277
と言える	-10.9279
当然	-10.9281
▁1961	-10.9284
駅まで	-10.9285
1500	-10.9285
シップ	-10.9286
バルセロナ	-10.9287
山形県	-10.9287
▁まさ	-10.9287
滅亡	-10.9288
と主張した	-10.9289
幕末	-10.9289
滋賀県	-10.929
主宰	-10.929
垣	-10.9291
吉野	-10.9291
年以降は	-10.9292
親王	-10.9294
に向かった	-10.9294
肝	-10.9295
梨	-10.9299
車は	-10.9301
配列	-10.9302
】	-10.9302
サッカー選手	-10.9303
原則として	-10.9305
を進め	-10.9306
主任	-10.9306
1923	-10.9307
公開された	-10.9308
140	-10.9308
づけ	-10.931
決め	-10.931
伏	-10.9311
変化する	-10.9312
、1973	-10.9313
ビュ	-10.9317
任期	-10.9317
サークル	-10.932
夕方	-10.932
を得	-10.9321
たという	-10.9323
金額	-10.9323
住居	-10.9324
の境界	-10.9328
芸人	-10.9328
シェア	-10.9329
の森	-10.9332
▁do	-10.9333
につき	-10.9333
人事	-10.9333
珠	-10.9335
の地名	-10.9336
ショウ	-10.9336
1919	-10.9337
セーブ	-10.9337
スプ	-10.9338
mt	-10.9339
しかない	-10.9339
car	-10.934
ことはない	-10.934
の共同	-10.9341
ギリシア	-10.9342
代表として	-10.9344
実業家	-10.9347
細菌	-10.9347
900	-10.9352
長女	-10.9354
作画	-10.9355
ファイ	-10.9356
会談	-10.9359
専	-10.936
を学んだ	-10.936
大宮	-10.9361
playstation	-10.9364
薬物	-10.9364
▁fifa	-10.9364
番台	-10.9364
すけ	-10.9365
一時的に	-10.9365
が設けられ	-10.9366
ノル	-10.9366
菅	-10.9369
国内の	-10.937
考	-10.937
夏の	-10.9371
征服	-10.9371
に比べ	-10.9372
仕事を	-10.9373
消滅した	-10.9373
打ち上げ	-10.9374
ゴム	-10.9374
されているが	-10.9374
▁番組	-10.9375
付近で	-10.9376
1930	-10.9376
1965	-10.9378
1/	-10.9379
ニャ	-10.938
ディオ	-10.9382
を取得	-10.9382
勉強	-10.9384
てしまい	-10.9385
ヘリコプター	-10.9388
を訪れ	-10.9388
大気	-10.9388
登山	-10.9389
描かれている	-10.939
がほとんど	-10.939
に移転	-10.9391
上記	-10.9392
住宅地	-10.9394
航行	-10.9394
と改名	-10.9395
残留	-10.9396
百貨店	-10.9396
かれた	-10.9397
ジョーンズ	-10.9397
ないまま	-10.9398
径	-10.9399
hy	-10.9401
ct	-10.9401
aa	-10.9401
巡洋艦	-10.9402
and	-10.9403
別れ	-10.9403
▁専門は	-10.9403
駅は	-10.9407
を使用している	-10.9407
スポット	-10.941
を重ね	-10.941
の前身	-10.9411
触れ	-10.9412
刑務所	-10.9412
咲	-10.9412
don	-10.9413
加速	-10.9415
財務	-10.9416
牽引	-10.9419
いま	-10.9419
東急	-10.9419
と同様の	-10.9422
▁エ	-10.9422
リーは	-10.9427
架	-10.9429
肺	-10.943
近衛	-10.9435
順次	-10.9435
海域	-10.9435
されるが	-10.9435
が必要である	-10.9436
1966	-10.9436
説得	-10.9437
すこと	-10.9437
参考	-10.9441
シャルル	-10.9441
全般	-10.9443
心理	-10.9444
主役	-10.9445
tic	-10.9449
この作品	-10.9449
尿	-10.9449
人材	-10.9451
を含めて	-10.9452
稿	-10.9454
所領	-10.9454
1918	-10.9455
返還	-10.9455
日目	-10.9457
を経由して	-10.9466
石炭	-10.9466
々と	-10.9466
の強い	-10.9467
退団	-10.9469
烏	-10.947
大変	-10.947
齢	-10.9473
、1974	-10.9474
あげ	-10.9475
到達	-10.9476
細川	-10.9477
殻	-10.9481
バイエルン	-10.9481
建築物	-10.9484
▁このうち	-10.9485
刃	-10.9488
を広げ	-10.9489
ペー	-10.949
非常	-10.9491
実施された	-10.9492
奈良県	-10.9492
1944	-10.9492
出して	-10.9494
は全く	-10.9496
くり	-10.9497
に出場した	-10.9498
棚	-10.95
はアメリカ	-10.9501
グラフィック	-10.9501
騎	-10.9505
▁1920	-10.951
マンション	-10.9511
▁1959	-10.9512
スイッチ	-10.9513
テーブル	-10.9516
時期に	-10.9517
実用	-10.9518
気持ち	-10.9518
岬	-10.952
施工	-10.9521
往	-10.9522
フィラデルフィア	-10.9524
1902	-10.9524
退役	-10.9525
現存する	-10.9526
出る	-10.9527
ノフ	-10.9527
行っている	-10.953
されたため	-10.9531
もっと	-10.9531
運輸	-10.9533
の内容	-10.9536
カタ	-10.9536
金を	-10.9537
の一部を	-10.9537
イエス	-10.9538
共同体	-10.9538
佐々木	-10.9539
に設置された	-10.9539
哨戒	-10.954
放棄	-10.9542
ことが出来る	-10.9545
延伸	-10.9545
が少なく	-10.9549
大きさ	-10.9551
を繰り返し	-10.9553
主義者	-10.9554
扱う	-10.9554
水戸	-10.9554
▁you	-10.9555
潤	-10.9558
ind	-10.9561
基本的に	-10.9562
道を	-10.9562
灰	-10.9563
十分	-10.9565
の整備	-10.9565
を作った	-10.9569
がく	-10.957
いつ	-10.957
の次男	-10.9571
が起こる	-10.9575
つける	-10.9576
水平	-10.9576
三島	-10.958
初戦	-10.958
メリ	-10.9582
2020	-10.9586
イスラーム	-10.9587
恐怖	-10.9587
風の	-10.9587
プラットフォーム	-10.959
af	-10.9592
アメリカで	-10.9592
ミュー	-10.9593
行われている	-10.9595
通路	-10.9602
に敗れ	-10.9604
後者	-10.9605
を知る	-10.9609
欲	-10.9609
季節	-10.961
捕手	-10.9611
のではないか	-10.9611
グレー	-10.9612
マレーシア	-10.9615
必要な	-10.9615
満州	-10.9616
目撃	-10.9616
に従い	-10.9617
性が	-10.9617
同僚	-10.9621
養成	-10.9622
融合	-10.9622
gen	-10.9623
評判	-10.9623
が生じ	-10.9624
ブリー	-10.9626
貧	-10.9627
手続き	-10.9627
堤	-10.963
控え	-10.9631
行い	-10.9631
に到着した	-10.9633
マップ	-10.9633
ニール	-10.9634
嶺	-10.9635
を投げ	-10.9636
フジ	-10.9637
は大きく	-10.9637
所持	-10.9638
運河	-10.9639
ris	-10.9639
歌舞伎	-10.9641
とは別	-10.9641
のちの	-10.9642
付く	-10.9642
トウ	-10.9643
北区	-10.9643
ムシ	-10.9644
チップ	-10.9645
期間は	-10.9647
幼稚園	-10.9647
裁	-10.9649
何も	-10.9649
徴	-10.965
慶長	-10.9652
諏訪	-10.9655
1922	-10.9656
ノート	-10.9658
小屋	-10.9658
みつ	-10.966
併用	-10.966
楼	-10.9661
保証	-10.9662
理由は	-10.9662
正しい	-10.9663
講義	-10.9665
フランス軍	-10.9666
ten	-10.9667
経過	-10.9668
生じる	-10.9668
譜	-10.9668
てくる	-10.9668
ドリーム	-10.9669
鎮圧	-10.967
伊豆	-10.9671
併	-10.9672
kw	-10.9673
bl	-10.9674
セブン	-10.9674
1926	-10.9675
、1977	-10.9675
セラ	-10.9675
現れた	-10.9675
篠	-10.9676
彫刻	-10.9678
炭素	-10.9679
商店街	-10.9681
だけが	-10.9688
翔	-10.969
両者	-10.9692
、1968	-10.9694
つである	-10.9695
he	-10.9699
招待	-10.9699
氏が	-10.9701
で優勝	-10.9701
キリスト	-10.9705
移	-10.9706
人々が	-10.9706
もん	-10.9709
北東部	-10.971
大量	-10.9712
でもあり	-10.9712
役員	-10.9714
を大きく	-10.9714
以下のように	-10.9715
肥	-10.9718
ストップ	-10.9719
の設置	-10.9719
劣	-10.972
に任命された	-10.9721
戦う	-10.9721
候	-10.9722
、1971	-10.9722
独自	-10.9723
信用	-10.9724
をベースに	-10.9725
内では	-10.9725
サイクル	-10.9726
十字	-10.9728
完	-10.9728
さくら	-10.9728
が用いられる	-10.9729
を守る	-10.9729
愛知	-10.973
謙	-10.9731
をきっかけに	-10.9731
res	-10.9731
的である	-10.9731
当初から	-10.9733
に移籍した	-10.9734
富山県	-10.9736
▁本名	-10.9736
fo	-10.9737
の支配	-10.9742
神宮	-10.9743
小川	-10.9743
に成功	-10.9743
ェ	-10.9744
わか	-10.9746
を書き	-10.9747
が可能である	-10.9748
存在し	-10.9748
相手の	-10.9748
が担当	-10.9749
時間が	-10.975
▁1947	-10.9752
出来	-10.9754
スカウト	-10.9754
▁正	-10.9755
事で	-10.9757
コーヒー	-10.9757
版は	-10.9757
バレエ	-10.9758
易	-10.976
電圧	-10.976
電化	-10.9765
帰り	-10.9771
正確な	-10.9771
下記	-10.9773
対処	-10.9774
発注	-10.9775
鈴	-10.9777
カッ	-10.9777
傍ら	-10.9778
ee	-10.9779
▁アル	-10.978
out	-10.9781
郡は	-10.9783
選手が	-10.9784
消え	-10.9784
予約	-10.9784
力が	-10.9786
▁いずれも	-10.9787
セレ	-10.9789
試合に出場し	-10.9789
鞍	-10.979
名称は	-10.979
に立ち	-10.9791
版が	-10.9792
書かれている	-10.9793
レーン	-10.9794
不能	-10.9795
最古の	-10.9796
講座	-10.9796
▁live	-10.9799
短編	-10.98
有名である	-10.98
が含まれる	-10.9802
郡内	-10.9802
▁第二次世界大戦	-10.9802
もこの	-10.9803
そうした	-10.9804
折り	-10.9806
青森	-10.9807
ないと	-10.9808
アマ	-10.9808
依	-10.981
自由に	-10.9813
重力	-10.9814
▁ca	-10.9816
中川	-10.9817
毎回	-10.9817
シンボル	-10.9818
各地の	-10.982
山岳	-10.9822
延期	-10.9822
ther	-10.9824
バット	-10.9824
とは別に	-10.9825
していなかった	-10.9826
看板	-10.9828
汚染	-10.9829
勃発	-10.9829
短期間	-10.9829
グラウンド	-10.9829
で構成される	-10.9831
王国の	-10.9831
楽章	-10.9833
衆議院	-10.9834
コーン	-10.9834
桐	-10.9835
スロー	-10.9838
標本	-10.9839
表紙	-10.9841
グラス	-10.9841
▁1958	-10.9842
黄金	-10.9842
俺	-10.9843
現代の	-10.9844
▁jr	-10.9845
三角	-10.9846
摂	-10.9848
などにより	-10.9849
pv	-10.985
▁1946	-10.985
に設置	-10.9851
実は	-10.9853
を集め	-10.9853
テレビ東京	-10.9854
は不明である	-10.9856
用いられる	-10.9856
▁music	-10.9858
海賊	-10.986
fifa	-10.986
木造	-10.9862
隠れ	-10.9862
mk	-10.9863
パーツ	-10.9863
設立した	-10.9864
リゾート	-10.9866
大幅に	-10.9868
支払い	-10.9868
南部の	-10.9868
モハ	-10.9871
日放送	-10.9872
保安	-10.9872
に所属し	-10.9874
坪	-10.9875
造船所	-10.9875
みち	-10.9875
乙	-10.9879
アラブ	-10.9879
ate	-10.9882
1901	-10.9884
は存在しない	-10.9886
▁本作	-10.9887
妨害	-10.9888
鎌倉時代	-10.9889
を開設	-10.9889
切る	-10.9889
▁1939	-10.989
戦時	-10.9893
長編	-10.9894
博多	-10.9895
添	-10.9897
単独で	-10.9898
都市計画	-10.99
興味	-10.9901
編集者	-10.9901
世に	-10.9902
ッパ	-10.9903
学位	-10.9903
盛り	-10.9904
に出演した	-10.9904
にも関わらず	-10.9905
離れ	-10.9907
境界	-10.991
と対戦	-10.991
調理	-10.991
大学名誉教授	-10.9912
チャートで	-10.9912
紋章	-10.9913
怪	-10.9913
査	-10.9914
を搭載した	-10.9915
二丁目	-10.9916
rc	-10.9916
デビューした	-10.9917
プー	-10.9917
入院	-10.9918
次のような	-10.9918
ide	-10.9918
信長	-10.9919
記す	-10.9919
トロン	-10.9919
▁1948	-10.9919
1962	-10.992
▁1956	-10.9921
結論	-10.9922
搭乗	-10.9922
落語	-10.9923
打者	-10.9923
不振	-10.9924
ls	-10.9925
得る	-10.9925
スラ	-10.9925
キャプテン	-10.9926
扇	-10.9927
という名前	-10.993
ロッ	-10.993
マリオ	-10.993
に本社を置く	-10.993
の言葉	-10.9931
気筒	-10.9932
ピーク	-10.9934
数百	-10.9935
徒歩	-10.9935
無限	-10.9939
水域	-10.9939
ファル	-10.9939
はイギリス	-10.9944
の多くが	-10.9945
とても	-10.9946
に従事	-10.9947
しつつ	-10.9948
ブライアン	-10.9948
届け	-10.9949
壊滅	-10.995
が現れ	-10.9953
を求めて	-10.9954
fl	-10.9955
侵略	-10.9955
sk	-10.9955
ner	-10.9956
締結	-10.9958
町村	-10.996
はその後	-10.9961
ぽ	-10.9964
る事	-10.9966
は後に	-10.9967
曲を	-10.9967
後継	-10.9967
止	-10.9968
▁love	-10.997
賛成	-10.997
クタ	-10.9971
戒	-10.9971
伊達	-10.9971
派生	-10.9973
大分県	-10.9975
西方	-10.9975
モチーフ	-10.9975
が生まれた	-10.9977
1898	-10.9977
ーラ	-10.9978
の動き	-10.9978
総会	-10.9979
わる	-10.998
じゃ	-10.998
着用	-10.998
出席	-10.9983
同士の	-10.9984
つけた	-10.9985
直前	-10.9985
月下旬	-10.9987
受け入れ	-10.9987
乗員	-10.9989
に入学	-10.9989
ブレイ	-10.9992
1900	-10.9993
期限	-10.9993
無い	-10.9993
cg	-10.9995
ことも多い	-10.9999
リバー	-10.9999
すぎ	-11.0001
ハリウッド	-11.0002
▁現在では	-11.0002
ものではない	-11.0003
を開始する	-11.0004
実況	-11.0004
捜索	-11.0006
ハッ	-11.0008
不可	-11.0009
シード	-11.001
が続いた	-11.0011
正教会	-11.0012
合衆国	-11.0013
▁高	-11.0014
飲み	-11.0014
セントラル	-11.0015
年末	-11.0016
集会	-11.0019
残りの	-11.0023
さと	-11.0028
範	-11.0029
息子の	-11.0032
を決める	-11.0034
めい	-11.0034
▁マ	-11.0034
大尉	-11.0037
パーセント	-11.0041
含	-11.0043
大公	-11.0049
と考えた	-11.005
oc	-11.0052
偶然	-11.0054
pt	-11.0056
線は	-11.0057
人員	-11.0057
ブリッジ	-11.0061
her	-11.0062
ここに	-11.0062
音楽院	-11.0064
出て	-11.0064
ボーイ	-11.0066
モバイル	-11.0066
を発表し	-11.0067
それ以外の	-11.0068
近世	-11.0068
カントリー	-11.0068
日をもって	-11.0069
、1964	-11.0071
がなかった	-11.0073
マスク	-11.0073
覆	-11.0073
イズ	-11.0074
心理学	-11.0075
ループ	-11.0075
を挙げ	-11.0076
ピンク	-11.0076
医薬品	-11.0078
加賀	-11.0078
愛媛県	-11.0079
1963	-11.0079
使用された	-11.008
描いた	-11.0081
塗	-11.0083
方に	-11.0084
、1969	-11.0084
判事	-11.0084
マドリード	-11.0084
市と	-11.0085
固有	-11.0086
己	-11.0087
重賞	-11.0088
牧場	-11.009
法的	-11.009
だけの	-11.0092
ntt	-11.0093
▁1955	-11.0093
を起こした	-11.0094
以前から	-11.0095
欄	-11.0101
わら	-11.0101
とおり	-11.0102
飾り	-11.0105
南極	-11.0106
椎	-11.0106
青山	-11.0108
三浦	-11.0109
等を	-11.0111
サーバ	-11.0111
レビュー	-11.0113
競合	-11.0114
傘下の	-11.0114
早期	-11.0116
艦艇	-11.0116
ベリ	-11.0116
烈	-11.0118
▁ここでは	-11.0121
大使館	-11.0121
エンジンは	-11.0123
選考	-11.0126
新作	-11.0126
に至るまで	-11.0126
助け	-11.0126
ブロー	-11.0127
徳島県	-11.0132
とりわけ	-11.0134
1921	-11.0134
ペリ	-11.0136
を設置し	-11.0136
性的	-11.0136
来た	-11.0136
講演	-11.0136
トレード	-11.0137
で初	-11.0146
審判	-11.0146
大戦	-11.0147
168	-11.0147
▁ro	-11.0148
いわ	-11.0148
高架	-11.0148
並べ	-11.0148
南西部	-11.0148
決して	-11.0148
は不明	-11.0149
鋭	-11.015
られない	-11.0151
モンテ	-11.0151
cu	-11.0152
隠し	-11.0156
カリフォルニア	-11.0157
場で	-11.0157
の権利	-11.0157
瓦	-11.0158
メダル	-11.0158
にかけての	-11.0163
省略	-11.0164
ブロン	-11.0164
復元	-11.0165
和歌山県	-11.0165
しまう	-11.017
gra	-11.0171
エディ	-11.0172
景観	-11.0172
men	-11.0174
our	-11.0175
▁is	-11.0175
懸	-11.0177
爆撃機	-11.0177
合唱	-11.0177
ひら	-11.0178
▁アメリカ合衆国	-11.0181
格闘	-11.0181
gr	-11.0182
に出場し	-11.0183
ase	-11.0184
▁まず	-11.0185
狭い	-11.0185
誕生した	-11.0186
駅と	-11.0186
に帰	-11.0187
撮影所	-11.0188
保健	-11.0189
同国	-11.019
概	-11.0191
発売した	-11.0192
抑制	-11.0193
と考える	-11.0194
ライヴ	-11.0195
ロケ	-11.0196
が存在した	-11.0196
催	-11.02
立法	-11.02
han	-11.0205
かし	-11.0208
各社	-11.0209
死後	-11.0213
カーブ	-11.0213
拘束	-11.0215
辞任	-11.0218
靴	-11.0218
政府が	-11.0218
を見せた	-11.0219
ova	-11.022
リム	-11.0221
付ける	-11.0223
レーション	-11.0227
佐賀	-11.0227
逃亡	-11.0228
適切な	-11.0228
が非常に	-11.0228
土佐	-11.0228
携帯	-11.023
盗塁	-11.0232
メアリー	-11.0234
ていること	-11.0234
充実	-11.0237
イド	-11.0238
埋	-11.0239
餌	-11.0241
▁1954	-11.0242
るか	-11.0242
世界で	-11.0243
▁オ	-11.0243
イチ	-11.0244
を探し	-11.0246
▁[	-11.0247
マツ	-11.0249
月からは	-11.0251
の際には	-11.0253
の間の	-11.0254
ちゅうがっこう	-11.0254
教区	-11.0254
少なく	-11.0254
移管	-11.0254
たん	-11.0255
逃	-11.0256
甲子園	-11.0258
フォール	-11.0259
尽く	-11.026
出店	-11.026
函数	-11.0261
濃	-11.0261
を失い	-11.0262
同名の	-11.0262
の再	-11.0263
に進出	-11.0263
反射	-11.0263
年頃に	-11.0263
引き継がれ	-11.0266
高校時代	-11.0267
あわせて	-11.0269
怒	-11.0269
はかつて	-11.027
検証	-11.027
研究科	-11.0273
吐	-11.0274
を備えた	-11.0274
うちに	-11.0277
感謝	-11.0278
態	-11.0279
進んで	-11.0279
にあたって	-11.028
国立公園	-11.0284
付けた	-11.0284
度々	-11.0284
▁bo	-11.0287
変更された	-11.029
日本における	-11.029
abc	-11.0291
置き	-11.0292
ロープ	-11.0293
年時点で	-11.0293
隣接	-11.0294
を加え	-11.0294
学長	-11.03
レーザー	-11.03
▁この間	-11.03
斎藤	-11.0303
mr	-11.0303
法令	-11.0305
香川県	-11.0307
称号	-11.0308
日曜日	-11.0308
のことを	-11.0308
認め	-11.0309
フットボール	-11.0309
奨励	-11.031
1896	-11.031
過程で	-11.0312
▁ba	-11.0312
▁東京都	-11.0314
悪い	-11.0314
マスコミ	-11.0315
種牡馬	-11.0315
を使用し	-11.0315
妊娠	-11.0316
冷却	-11.0317
隔	-11.0317
チェック	-11.0318
装着	-11.032
偵察	-11.0322
恭	-11.0324
ラフ	-11.0324
部分が	-11.0326
を実施	-11.0327
番地	-11.0327
付いて	-11.0328
は当時	-11.0328
クイーン	-11.0329
食べ	-11.033
砲兵	-11.0331
har	-11.0333
短く	-11.0333
怪獣	-11.0337
待ち	-11.0337
していること	-11.0337
が運営する	-11.0338
を置く	-11.0338
も見られる	-11.0338
牧師	-11.0343
田町	-11.0346
線の駅である	-11.0349
youtube	-11.0351
を有し	-11.0352
教養	-11.0354
雌	-11.0356
粘	-11.0357
ウルトラ	-11.0361
概ね	-11.0361
仮面ライダー	-11.0362
利用される	-11.0362
熊野	-11.0364
を目的とした	-11.0368
gar	-11.037
みず	-11.037
つい	-11.0371
垂直	-11.0371
時刻	-11.0372
葛	-11.0373
主題歌	-11.0373
踏み	-11.0373
ではないか	-11.0374
ソビエト	-11.0375
本国	-11.0375
熟	-11.0376
に昇格	-11.0377
春日	-11.0377
にあって	-11.0377
結果的に	-11.038
与えられる	-11.038
間は	-11.038
rom	-11.0382
に登場した	-11.0382
脅威	-11.0382
取り組み	-11.0383
実家	-11.0383
女神	-11.0384
山下	-11.0384
主として	-11.0385
を立ち上げ	-11.0385
子と	-11.0386
▁天正	-11.0388
が収録されている	-11.0389
が増え	-11.0392
販売されている	-11.0392
ってくる	-11.0394
いで	-11.0394
1946	-11.0394
は基本的に	-11.0398
1914	-11.0399
市街	-11.0399
、1967	-11.0404
▁1952	-11.0405
ニューヨーク州	-11.0406
の変更	-11.0407
はさらに	-11.0407
登場し	-11.0409
ガイド	-11.041
1899	-11.0414
損失	-11.0414
無人	-11.0416
表彰	-11.0416
南米	-11.0416
死刑	-11.0417
を抱え	-11.0419
タリ	-11.0421
消費者	-11.0421
計画は	-11.0422
にちなんで	-11.0424
がなされた	-11.0424
形成された	-11.0425
増加した	-11.0426
に改名	-11.0426
回答	-11.0427
ina	-11.0427
耕	-11.0428
を継続	-11.0429
導入された	-11.0429
トニー	-11.043
現状	-11.0433
レア	-11.0436
はいずれも	-11.0436
改編	-11.0439
併せて	-11.0439
を流れる	-11.0439
というもの	-11.0439
ポケモン	-11.0441
てる	-11.0441
red	-11.0444
1897	-11.0444
磁気	-11.0446
燃焼	-11.0448
野生	-11.0448
作品が	-11.045
定められた	-11.0451
ギル	-11.0455
学年	-11.0456
過ぎ	-11.0456
近隣	-11.0459
放射	-11.0461
ard	-11.0462
れない	-11.0463
享保	-11.0463
広報	-11.0464
職人	-11.0466
開局	-11.0466
トマス	-11.0466
万石	-11.0467
涙	-11.0468
地域に	-11.0469
予防	-11.047
東日本大震災	-11.0473
om	-11.0474
記述する	-11.0474
mor	-11.0474
ufc	-11.0474
公社	-11.0475
ハーフ	-11.0475
垂	-11.0476
代表取締役社長	-11.0477
二軍	-11.0477
初となる	-11.0479
甲斐	-11.0479
でありながら	-11.048
▁na	-11.0481
曾	-11.0482
城を	-11.0483
</	-11.0483
利用されている	-11.0484
出生	-11.0485
改め	-11.0486
の普及	-11.0487
初めての	-11.0489
人口約	-11.0492
天使	-11.0493
損	-11.0494
瞬間	-11.0496
上げる	-11.0496
▁1953	-11.0496
返す	-11.0503
二郎	-11.0505
番人気	-11.0506
次男	-11.0508
アリス	-11.0509
そば	-11.0509
▁1949	-11.0509
を設立した	-11.051
、1965	-11.0512
ギタリスト	-11.0513
live	-11.0513
に敗れた	-11.0513
開け	-11.0515
作品で	-11.0516
再開発	-11.0516
子孫	-11.0517
劇場版	-11.0518
仕組み	-11.0523
逸	-11.0523
ang	-11.0525
年代後半	-11.0526
科学者	-11.0527
制約	-11.0528
家が	-11.0528
法第	-11.0529
使われていた	-11.0529
有限	-11.053
かかった	-11.0531
専属	-11.0532
豊田	-11.0533
老朽化	-11.0533
プロテスタント	-11.0533
大ヒット	-11.0537
終わった	-11.0538
かる	-11.0538
透明	-11.054
パーティー	-11.054
告げ	-11.0541
人々は	-11.0543
強度	-11.0543
を採用し	-11.0545
摩	-11.0546
半ば	-11.0546
付加	-11.0547
を兼ね	-11.0547
蒲	-11.0548
▁カ	-11.0548
正義	-11.0548
年連続で	-11.0549
ヨーク	-11.0549
締め	-11.0549
違法	-11.055
届	-11.0551
すべく	-11.0551
石井	-11.0553
抑え	-11.0553
砲塔	-11.0555
おい	-11.0559
に登場	-11.0559
▁1957	-11.0561
と称する	-11.0561
ことができた	-11.0562
学研究科	-11.0562
大いに	-11.0562
階建て	-11.0563
ッキー	-11.0563
活発	-11.0564
貨幣	-11.0565
優勝を果たした	-11.0568
を考える	-11.0569
1943	-11.0569
野菜	-11.0571
を押し	-11.0572
込まれた	-11.0573
珍	-11.0576
マンは	-11.0576
白色	-11.0577
路線バス	-11.0578
尉	-11.0578
伝達	-11.0578
死ぬ	-11.0579
できるように	-11.058
様に	-11.0584
残された	-11.0585
虐殺	-11.0586
に使われる	-11.0588
一丁目	-11.0589
年間の	-11.059
所有者	-11.0591
世と	-11.0593
ライダー	-11.0593
まさ	-11.0594
南アフリカ	-11.0595
ミナ	-11.0596
が描かれている	-11.0597
つもり	-11.0602
弱い	-11.0603
邪	-11.0603
シュート	-11.0603
cal	-11.0604
うまく	-11.0604
調達	-11.0607
県にある	-11.0608
が出た	-11.0609
長岡	-11.061
だけではなく	-11.061
bgm	-11.0611
万枚	-11.0611
間を	-11.0612
こととなる	-11.0613
島に	-11.0614
盆地	-11.0615
ゲージ	-11.0616
の都市	-11.0616
β	-11.0617
野田	-11.062
と表記	-11.0621
ボルト	-11.0622
レク	-11.0622
用いる	-11.0623
秀吉	-11.0624
新設された	-11.0624
iso	-11.0626
不良	-11.0628
もいる	-11.0628
鶏	-11.063
サス	-11.0633
少佐	-11.0633
ran	-11.0635
で第	-11.0636
テキスト	-11.0636
に続いて	-11.0638
時点では	-11.0638
京都市	-11.0639
1920	-11.064
中学生	-11.064
永禄	-11.0641
使用した	-11.0641
1947	-11.0642
話し	-11.0642
ven	-11.0642
周囲の	-11.0645
とされていた	-11.0646
革	-11.0647
引っ	-11.0648
ヴォー	-11.0649
1942	-11.065
投与	-11.0652
スクリーン	-11.0654
果実	-11.0655
日本でも	-11.0655
点は	-11.0657
を使用して	-11.066
支流	-11.0661
の向上	-11.0662
小松	-11.0662
ぐん	-11.0664
するのは	-11.0664
技師	-11.0665
の長男	-11.0665
役で	-11.0666
胤	-11.0669
sion	-11.0669
種子	-11.0669
代数	-11.0671
たけ	-11.0671
ジア	-11.0672
福井県	-11.0672
逮捕された	-11.0674
排除	-11.0674
間隔	-11.0677
狼	-11.0677
軌	-11.068
▁ゲーム	-11.068
槍	-11.068
スペイン語	-11.0681
350	-11.0684
体育館	-11.0686
平行	-11.0687
市役所	-11.0688
コミュニケーション	-11.0688
所長	-11.0688
亡	-11.0688
形は	-11.0689
登記	-11.0691
ベクトル	-11.0691
ッキ	-11.0691
年ごろ	-11.0692
ぞう	-11.0692
見方	-11.0699
▁go	-11.0706
駅である	-11.0707
東芝	-11.0707
稀	-11.0708
コント	-11.0708
代行	-11.071
失われ	-11.071
丈	-11.071
1912	-11.071
175	-11.0711
最上	-11.0713
人以上	-11.0714
ファンタジー	-11.0714
他社	-11.0718
をかけて	-11.0718
出され	-11.0722
賛	-11.0725
的なもの	-11.0725
ハリ	-11.0726
を発見した	-11.0728
県立	-11.0728
する際に	-11.0729
次いで	-11.0731
が起こり	-11.0731
識	-11.0732
に似た	-11.0732
ハンド	-11.0733
並み	-11.0734
兵力	-11.0734
債務	-11.0734
首位	-11.0735
家老	-11.0736
1910	-11.0736
部が	-11.0738
クレー	-11.0738
去	-11.0738
坂本	-11.074
スパー	-11.0742
祥	-11.0744
フォース	-11.0744
ウェールズ	-11.0746
起訴	-11.0746
トゥス	-11.0747
ica	-11.0747
篤	-11.0747
1917	-11.0747
が始まる	-11.0749
土壌	-11.075
響	-11.0751
貸	-11.0751
機は	-11.0751
▁1937	-11.0752
裸	-11.0755
に出る	-11.0756
要件	-11.0756
のイメージ	-11.0758
が入る	-11.0759
慶応	-11.076
はフランス	-11.0762
零	-11.0763
ショック	-11.0764
国民党	-11.0764
前線	-11.0767
宮城	-11.0768
設置された	-11.0769
枚目	-11.077
瓶	-11.077
ぜ	-11.077
ドイツ人	-11.077
に転じ	-11.0772
あくまで	-11.0774
売れ	-11.0777
line	-11.0778
かせ	-11.0779
同日	-11.0779
試作	-11.0781
していたため	-11.0783
自分たち	-11.0784
テキサス	-11.0784
を離れ	-11.0784
今まで	-11.0785
満足	-11.0785
通学	-11.0786
ならず	-11.0788
rp	-11.0789
が発表され	-11.0789
作品に	-11.0792
正確に	-11.0792
トリオ	-11.0793
日の対	-11.0794
クーデター	-11.0795
横断	-11.0796
に転	-11.0798
生物学	-11.08
を一	-11.0801
頂点	-11.0801
安政	-11.0802
スが	-11.0803
具体的な	-11.0806
ダニエル	-11.0807
新しく	-11.0807
でなく	-11.0809
農村	-11.0816
経営者	-11.0817
トール	-11.0818
たびたび	-11.0819
歳から	-11.0821
述べる	-11.0825
と発表した	-11.0826
部分を	-11.0827
のほかに	-11.0828
を組み	-11.0836
それ以前	-11.0836
後述の	-11.0837
分かれ	-11.0839
用として	-11.0841
ピエール	-11.0841
の記述	-11.0842
ニコ	-11.0843
領地	-11.0843
を呼び	-11.0844
日本映画	-11.0845
バリー	-11.0846
徹底	-11.0846
させている	-11.0846
に引き	-11.0846
たら	-11.0846
cp	-11.0849
付近の	-11.085
抜	-11.085
照明	-11.0854
編集長	-11.0854
使者	-11.0855
ません	-11.0855
tre	-11.0855
近畿	-11.0856
の評価	-11.0857
聞き	-11.0859
連載された	-11.0859
ベア	-11.086
天井	-11.086
本町	-11.0861
年ぶり	-11.0862
小説家	-11.0863
セス	-11.0863
示唆	-11.0864
学士	-11.0869
考慮	-11.0872
1941	-11.0874
道場	-11.0875
索	-11.0878
したところ	-11.0879
公式に	-11.0879
1961	-11.0881
汁	-11.0882
完結	-11.0883
を訪れた	-11.0883
手で	-11.0884
横浜市	-11.0884
▁一般に	-11.0887
ボブ	-11.0888
カ国	-11.0888
呼吸	-11.0889
ビーム	-11.0889
新聞社	-11.089
iz	-11.0893
▁records	-11.0894
書記	-11.0895
、1945	-11.0895
綾	-11.0896
▁愛称は	-11.0897
パッ	-11.0897
出身者	-11.0899
再放送	-11.0899
読む	-11.0899
場合が多い	-11.0899
走る	-11.0899
が起こった	-11.0901
大聖堂	-11.0902
1871	-11.0904
世紀から	-11.0906
ラック	-11.0907
達が	-11.0907
太平洋戦争	-11.0908
アメリカ人	-11.0909
芸術家	-11.0911
事から	-11.0912
並ぶ	-11.0913
が出る	-11.0913
討伐	-11.0915
ウィリアムズ	-11.0915
ルカ	-11.0916
教会の	-11.0916
疑い	-11.0916
石川県	-11.0917
浦和	-11.0918
ジング	-11.0918
の最終	-11.0921
アドレス	-11.0921
成田	-11.0924
ibm	-11.0925
遷	-11.0926
豊かな	-11.0927
▁大阪	-11.0927
があるため	-11.093
した上で	-11.0931
年春	-11.0932
水を	-11.0933
を表明した	-11.0935
三国	-11.0935
稼働	-11.0939
閲覧	-11.094
てから	-11.0942
の人々	-11.0942
時間は	-11.0942
民主主義	-11.0943
スタンド	-11.0945
という名	-11.0945
cf	-11.0945
近江	-11.0948
事実上の	-11.0952
すぎる	-11.0953
イト	-11.0953
敵対	-11.096
リアル	-11.0963
砂漠	-11.0964
ガーデン	-11.0964
水中	-11.0964
関節	-11.0968
選挙で	-11.097
習慣	-11.0971
弾薬	-11.0972
の平均	-11.0972
同作	-11.0973
定員	-11.0978
にほん	-11.098
ラッ	-11.098
誘	-11.0981
みんな	-11.0982
はドイツ	-11.0983
唄	-11.0984
立つ	-11.0985
を決め	-11.0985
有料	-11.0987
ヴェネツィア	-11.0989
原型	-11.0989
が困難	-11.0989
麓	-11.0989
の開催	-11.0992
war	-11.0992
使用される	-11.0993
を終えた	-11.0995
ことと	-11.0996
cpu	-11.0996
ロマ	-11.0997
臨床	-11.0997
遣	-11.0997
と語った	-11.0999
を集めた	-11.1
を基に	-11.1001
職務	-11.1001
舌	-11.1002
est	-11.1004
続けている	-11.1006
川町	-11.1006
北軍	-11.1009
麗	-11.101
視点	-11.1011
単一	-11.1011
全身	-11.1012
鷲	-11.1012
を搭載し	-11.1018
落下	-11.102
買い	-11.1021
扱	-11.1023
美濃	-11.1023
号車	-11.1024
も参照	-11.1026
リヤ	-11.1026
アシスタント	-11.1028
じょ	-11.1029
を採用している	-11.1029
▁略称は	-11.103
タケ	-11.1031
声明	-11.1031
仮名	-11.1032
プレミアリーグ	-11.1033
の運営	-11.1033
小学生	-11.1036
総務	-11.1038
地で	-11.1039
キハ	-11.104
に分かれ	-11.1041
中盤	-11.1041
開催されている	-11.1041
tc	-11.1043
浮上	-11.1043
検定	-11.1045
nc	-11.1045
全部	-11.1047
として活躍	-11.1047
世界観	-11.1048
母音	-11.1048
阻止	-11.1051
ショット	-11.1053
ワークス	-11.1053
qui	-11.1054
キム	-11.1056
精度	-11.1059
をそれぞれ	-11.1059
繰り返し	-11.106
評議会	-11.106
適応	-11.1061
右翼	-11.1062
土木	-11.1064
騎乗	-11.1064
映画館	-11.1066
1870	-11.1067
見られる	-11.1067
畳	-11.1068
チャンス	-11.1068
vol	-11.1069
られており	-11.107
に終わり	-11.1072
陣営	-11.1075
識別	-11.1075
▁1938	-11.1075
審議	-11.1076
コンクリート	-11.1076
グレード	-11.1078
port	-11.108
浅草	-11.1083
を切り	-11.1084
京阪	-11.1084
の人口は	-11.1087
これも	-11.1089
エム	-11.1089
に掲載された	-11.1091
上京	-11.1093
1880	-11.1093
アリーナ	-11.1093
北部の	-11.1095
いつも	-11.1095
制定された	-11.1098
陸上競技	-11.1099
第二次世界大戦中	-11.1099
無効	-11.11
徐	-11.1102
りする	-11.1102
知られた	-11.1104
救出	-11.1105
ナム	-11.1105
改訂	-11.1105
力士	-11.1106
日米	-11.1107
降板	-11.1108
の後継	-11.1109
備え	-11.1109
体操	-11.111
参謀	-11.1113
毛利	-11.1113
ないもの	-11.1114
済み	-11.1115
撃沈	-11.1116
広がり	-11.1118
緩	-11.1118
準決勝で	-11.1119
タカ	-11.112
謝罪	-11.1122
▁1951	-11.1124
商店	-11.1126
王立	-11.1126
カレ	-11.1126
モント	-11.1127
ダーク	-11.1127
反撃	-11.1127
かかる	-11.1128
与えられた	-11.1128
個々の	-11.1129
甲府	-11.1132
▁ex	-11.1133
自体が	-11.1135
1895	-11.1136
争	-11.114
大学大学院	-11.1142
で敗れた	-11.1142
流入	-11.1142
鞭	-11.1144
最小	-11.1145
突破	-11.1146
アイランド	-11.1149
されておらず	-11.1151
もあったが	-11.1152
max	-11.1152
を上げ	-11.1153
ite	-11.1154
はアメリカ合衆国	-11.1155
をつけ	-11.1156
足利	-11.1156
海底	-11.1158
ターボ	-11.1159
スケ	-11.1161
に就任し	-11.1162
社は	-11.1164
▁ar	-11.1164
の設立	-11.1165
pl	-11.1166
対空	-11.1166
コンテナ	-11.1166
▁as	-11.1168
で放送されていた	-11.117
アシスト	-11.1171
次のように	-11.1171
ドリー	-11.1172
疑	-11.1173
人々の	-11.1173
車両は	-11.1175
の範囲	-11.1175
その中で	-11.1178
をとった	-11.118
電流	-11.1181
住所	-11.1181
加えられ	-11.1184
1948	-11.1186
を図った	-11.1186
スマートフォン	-11.1187
開館	-11.1187
下位	-11.1188
カトリック教会	-11.1189
ボウ	-11.119
実質的に	-11.119
食料	-11.1191
に進学	-11.1191
、1966	-11.1191
ユーゴスラビア	-11.1192
およびその	-11.1193
頃には	-11.1194
ウラ	-11.1195
ヨーロッパの	-11.1195
と比べて	-11.1196
取り付け	-11.1197
燕	-11.1197
演習	-11.1197
ah	-11.1197
語っている	-11.1199
と結婚し	-11.1199
等が	-11.1201
倫理	-11.1202
番目	-11.1203
バイク	-11.1204
駿	-11.1206
ヴィア	-11.1207
英語で	-11.1207
期生	-11.1208
翌年の	-11.1211
を演じた	-11.1212
まん	-11.1214
高知	-11.1215
と比較して	-11.1215
人から	-11.1215
駆逐隊	-11.1215
皇太子	-11.1216
テキサス州	-11.1217
なのか	-11.1218
1868	-11.1219
しているため	-11.1219
やって	-11.122
は既に	-11.1223
テール	-11.1223
芝居	-11.1225
ョ	-11.1226
市販	-11.1226
北条	-11.1226
不要	-11.1227
部分に	-11.1227
震	-11.1227
を続ける	-11.1229
神奈川	-11.123
元素	-11.1231
の指揮	-11.1232
倒れ	-11.1233
リトル	-11.1233
んじ	-11.1236
を行って	-11.1238
ことによる	-11.1239
にそれぞれ	-11.124
は比較的	-11.1241
海戦	-11.1245
▁以前は	-11.1246
を唱え	-11.1247
運命	-11.1247
リレー	-11.1248
契約を結んだ	-11.1249
マーティン	-11.125
禄	-11.1251
法廷	-11.1251
拠	-11.1253
墨	-11.1254
らと共に	-11.1254
しろ	-11.1255
の支援	-11.1256
シカ	-11.1256
afc	-11.1258
分間	-11.1258
まれた	-11.1259
移行	-11.126
トゥル	-11.1261
カナダの	-11.1263
袖	-11.1264
野党	-11.1264
解雇	-11.1265
ウリ	-11.1265
抱	-11.1266
と呼称	-11.1267
神殿	-11.1268
就航	-11.1268
哉	-11.1271
データベース	-11.1273
するとともに	-11.1274
ニューヨーク市	-11.128
je	-11.1281
のキャラクター	-11.1281
イラ	-11.1282
二つ	-11.1283
隠居	-11.1283
農家	-11.1284
ジェン	-11.1286
こちら	-11.1286
挙げられ	-11.1287
3,000	-11.1288
ボロ	-11.1289
取られ	-11.1289
角度	-11.1289
造り	-11.1291
ニカ	-11.1291
請	-11.1291
必ずしも	-11.1292
地獄	-11.1293
排	-11.1293
ü	-11.1293
バス停	-11.1294
倉庫	-11.1295
カナ	-11.1296
タイトルは	-11.1297
傍	-11.1298
に立つ	-11.1298
参加している	-11.1299
外見	-11.1302
の一覧	-11.1303
青春	-11.1304
ッキング	-11.1307
john	-11.1307
未満	-11.1307
位置づけ	-11.1308
広大な	-11.1309
ワル	-11.131
前回	-11.131
発動	-11.131
かけて	-11.1314
隻の	-11.1316
小田原	-11.1317
ヴィチ	-11.1317
の政治家	-11.1317
信者	-11.1318
小山	-11.1319
最初は	-11.1319
革新	-11.132
タラ	-11.1325
藤田	-11.1326
▁実際	-11.1326
を収録した	-11.1331
▁1936	-11.1332
配下	-11.1333
歌う	-11.1336
影響を受けた	-11.1337
を下	-11.1338
日野	-11.1338
文学部	-11.1338
単なる	-11.1339
国産	-11.1339
異なり	-11.1341
タキ	-11.1341
期には	-11.1342
未だ	-11.1342
以上に	-11.1342
招集	-11.1343
を残す	-11.1344
肉体	-11.1347
が残っている	-11.1348
sha	-11.1349
ロシア語	-11.1351
の愛称	-11.1352
スピ	-11.1352
航空会社	-11.1353
連合国	-11.1355
実質	-11.1355
猪	-11.1356
特撮	-11.1356
ソンは	-11.1357
の一部が	-11.1357
学科卒業	-11.1358
位相	-11.136
南東部	-11.1361
1958	-11.1361
くない	-11.1361
東南アジア	-11.1362
カウ	-11.1365
ダス	-11.1365
を超え	-11.1365
のもとに	-11.1367
の設定	-11.1367
放送される	-11.1369
迎え	-11.137
bb	-11.137
爵位	-11.1371
和解	-11.1372
方法で	-11.1373
ユニオン	-11.1375
和歌山	-11.1375
ボーン	-11.1376
機関銃	-11.138
修了	-11.1381
繁栄	-11.1381
三木	-11.1381
king	-11.1383
リウム	-11.1383
を変え	-11.1383
レオン	-11.1386
に生まれ	-11.1387
機を	-11.1389
記載されている	-11.1391
神田	-11.1391
lin	-11.1391
、1963	-11.1392
歌い	-11.1396
集まり	-11.1397
サウルス	-11.1397
変わって	-11.1398
、1947	-11.14
相手に	-11.1401
収益	-11.1402
大島	-11.1405
区画	-11.1406
アンダー	-11.1406
方面へ	-11.1408
書店	-11.1412
物体	-11.1412
ファイター	-11.1412
1913	-11.1413
われる	-11.1416
推移	-11.1419
ダイヤモンド	-11.1421
アーサー	-11.1422
食べる	-11.1423
もともと	-11.1425
成功した	-11.1425
技能	-11.1426
セリエ	-11.1427
nu	-11.1427
南軍	-11.1433
が盛ん	-11.1433
わなかった	-11.1434
もあるが	-11.1435
ムスリム	-11.1435
大量に	-11.1437
トラン	-11.1438
のひとつである	-11.1438
充	-11.1439
販	-11.1442
藩士	-11.1442
会合	-11.1443
摂取	-11.1444
るようになり	-11.1446
軍と	-11.1446
以後は	-11.1447
のデザイン	-11.1448
ピット	-11.1449
さらには	-11.145
way	-11.145
出場機会	-11.1453
年半	-11.1454
セッション	-11.1455
なくても	-11.1456
開催される	-11.1456
の母	-11.1456
セカンド	-11.1457
▁今	-11.1457
アメリカでは	-11.1458
麦	-11.146
ギュ	-11.1461
1949	-11.1461
量の	-11.1462
ダメージ	-11.1462
最後まで	-11.1465
▁初代	-11.1465
これらは	-11.1465
起こる	-11.147
妖怪	-11.1471
影響を与えた	-11.1472
障害者	-11.1473
1955	-11.1473
収録曲	-11.1474
勘	-11.1474
補佐	-11.1474
本店	-11.1477
視聴	-11.1477
彼に	-11.1478
の一員	-11.148
出身で	-11.1482
プロセッサ	-11.1482
心臓	-11.1484
るまで	-11.1484
優位	-11.1487
批評家	-11.1488
皇子	-11.1489
知名度	-11.1489
夏季	-11.1491
創業者	-11.1491
oh	-11.1492
日本国内で	-11.1493
チル	-11.1493
ンダ	-11.1495
リーナ	-11.1497
労働組合	-11.1499
が最も	-11.15
ボイ	-11.1501
発生した	-11.1503
内にある	-11.1504
は少ない	-11.1508
塊	-11.1508
切った	-11.151
告	-11.1512
科の	-11.1512
ance	-11.1513
増強	-11.1513
えて	-11.1513
党首	-11.1514
警告	-11.1516
プライ	-11.1517
蜂起	-11.1517
中立	-11.152
情勢	-11.1521
三つ	-11.1522
自衛隊	-11.1523
たちを	-11.1524
三井	-11.1525
レディ	-11.1525
ているため	-11.1526
スケート	-11.1528
の代わりに	-11.153
が生じる	-11.153
出雲	-11.1531
かた	-11.1532
黙	-11.1533
廻	-11.1535
最高位	-11.1535
を目指して	-11.1535
が開発した	-11.1536
経歴	-11.1537
作風	-11.1538
の大半	-11.1538
推測	-11.154
起こった	-11.154
の墓	-11.1541
として知られている	-11.1541
遠く	-11.1543
倶楽部	-11.1544
グローバル	-11.1548
タム	-11.155
を挟んで	-11.1553
埼玉	-11.1556
異なっている	-11.1559
信濃	-11.1561
しかし	-11.1561
マウント	-11.1561
島津	-11.1561
こともできる	-11.1562
朝日放送	-11.1563
fr	-11.1563
出口	-11.1564
相模	-11.1564
活性	-11.1565
発信	-11.1565
アンナ	-11.1567
胴体	-11.1568
▁with	-11.1569
の世帯数と人口は以下の通りである	-11.157
どちらも	-11.1571
木材	-11.1572
グラー	-11.1572
流出	-11.1573
出品	-11.1574
ペルー	-11.1574
イア	-11.1575
織田	-11.1575
無し	-11.1576
に迎え	-11.1576
謎	-11.1577
捧げ	-11.1578
渡り	-11.1579
福田	-11.1579
経由で	-11.1579
戦死した	-11.158
老人	-11.1581
▁su	-11.1582
を備え	-11.1583
を伴う	-11.1585
マニ	-11.1586
失点	-11.1587
呼び	-11.1588
毎に	-11.1588
中東	-11.159
河原	-11.159
著しく	-11.1591
西ドイツ	-11.1592
盛岡	-11.1593
詠	-11.1593
とくに	-11.1593
犠牲	-11.1594
後藤	-11.1595
、1948	-11.1597
fer	-11.1599
も行っている	-11.16
厳しく	-11.16
見える	-11.1601
は各	-11.1601
崩	-11.1602
門下	-11.1605
嫁	-11.1605
であることが	-11.1606
ることになる	-11.1606
に指定された	-11.1609
兄の	-11.1611
看護	-11.1612
就職	-11.1612
リカ	-11.1613
クラーク	-11.1614
没した	-11.1616
ハウゼン	-11.1616
取って	-11.1618
fu	-11.1618
らとともに	-11.1622
年夏	-11.1625
初優勝	-11.1625
数を	-11.1631
忌	-11.1632
低く	-11.1634
ずる	-11.1635
煮	-11.1636
動詞	-11.1637
1911	-11.1637
せき	-11.1637
誤り	-11.1639
葬儀	-11.1639
在学中	-11.1642
ミラノ	-11.1644
訪	-11.1645
徳川家	-11.1645
ドライ	-11.1646
近代化	-11.1647
ッコ	-11.1648
ture	-11.1649
出場し	-11.1649
置かれ	-11.1649
ジル	-11.165
形式で	-11.165
1956	-11.1655
市域	-11.1655
渓	-11.1656
越後	-11.1657
ical	-11.1658
マンガ	-11.166
を目指した	-11.1661
大日本	-11.1661
多様な	-11.1662
ler	-11.1662
面に	-11.1664
決勝戦	-11.1664
に変え	-11.1664
1959	-11.1664
を要する	-11.1667
友好	-11.167
まって	-11.1671
罰	-11.1671
普段	-11.1678
死体	-11.1678
レフ	-11.1679
gl	-11.168
メジャーデビュー	-11.1682
外務省	-11.1683
マーケット	-11.1685
jp	-11.1685
設定されている	-11.1686
▁du	-11.1686
ラグ	-11.1687
捕獲	-11.1687
次に	-11.1687
▁mar	-11.1687
大学文学部	-11.1689
単純な	-11.169
親友	-11.169
することにより	-11.1691
の基本	-11.1692
を誇る	-11.1692
top	-11.1696
総額	-11.1696
ef	-11.1696
かける	-11.1696
三重	-11.1699
正体	-11.1701
学ぶ	-11.1701
量が	-11.1702
没後	-11.1703
湿	-11.1706
歴史家	-11.1707
を目的として	-11.1707
マルクス	-11.1712
プレミアム	-11.1714
開幕戦	-11.1715
連合会	-11.1715
室町時代	-11.1715
自由民主党	-11.1715
含む	-11.1716
らん	-11.1717
撮	-11.1717
マウス	-11.1719
を書いた	-11.1719
、1961	-11.1719
、1962	-11.172
ロッテ	-11.172
レジ	-11.172
天文台	-11.1721
は不	-11.1724
併合	-11.1724
撃墜	-11.1726
出典	-11.1726
慈	-11.1727
が成立した	-11.1728
基金	-11.173
らす	-11.1732
イタリア共和国	-11.1732
本作品	-11.1733
をもたらした	-11.1733
並びに	-11.1735
アンテナ	-11.1735
の前で	-11.1742
360	-11.1742
ミッド	-11.1742
最終回	-11.1742
体を	-11.1743
このとき	-11.1743
しげ	-11.1743
無事	-11.1744
オレンジ	-11.1745
浜松	-11.1746
ものが多い	-11.1747
▁他にも	-11.1747
ring	-11.1748
テック	-11.1749
単純	-11.1749
を目的に	-11.1751
詰	-11.1751
レスリング	-11.1752
に移った	-11.1752
シングルス	-11.1753
エウ	-11.1753
156	-11.1754
視覚	-11.1755
▁それでも	-11.1757
機能を	-11.1758
win	-11.1758
ヶ所	-11.1761
ことができ	-11.1762
があって	-11.1762
橘	-11.1762
教科書	-11.1763
関わり	-11.1764
が主流	-11.1764
噴火	-11.1767
みられる	-11.1767
エド	-11.1767
支給	-11.1768
韓国の	-11.177
仮説	-11.1773
ピュ	-11.1775
を占め	-11.1777
参加した	-11.1777
データを	-11.1778
ence	-11.1779
近藤	-11.1779
ストー	-11.1779
認証	-11.1779
年目の	-11.1782
作曲した	-11.1784
オイ	-11.1788
すい	-11.1788
スケール	-11.179
上杉	-11.1791
猟	-11.1791
っぱ	-11.1791
1952	-11.1792
予定である	-11.1795
ken	-11.1796
家康	-11.1797
簡単に	-11.1799
高崎	-11.1799
もその	-11.18
出荷	-11.18
と思う	-11.1805
定める	-11.1805
ザル	-11.1805
テラ	-11.1808
が認められ	-11.1808
用水	-11.181
ゾー	-11.181
放送されていた	-11.1814
象徴	-11.1816
会社である	-11.1817
sy	-11.1819
チャンピオンシップ	-11.1819
サウ	-11.182
1873	-11.1821
建物は	-11.1824
法を	-11.1825
胆	-11.1828
放送されている	-11.1828
等に	-11.1829
あら	-11.183
遼	-11.1835
序盤	-11.1836
ウエスト	-11.1836
その時	-11.1839
ぎょう	-11.1839
代々	-11.184
を置き	-11.184
動機	-11.1843
叙	-11.1845
切断	-11.1845
特典	-11.1846
開戦	-11.1849
オラ	-11.185
蓄	-11.1851
本形式	-11.1852
オオ	-11.1852
日本の元	-11.1852
_3	-11.1857
1954	-11.1858
ラマ	-11.1859
飯田	-11.1859
シフト	-11.186
立った	-11.1861
を介して	-11.1862
イロ	-11.1862
中学校に通う場合	-11.1864
殺された	-11.1864
この時点で	-11.1868
行っていた	-11.1869
独裁	-11.187
表示される	-11.1871
釜	-11.1872
浄	-11.1872
と見なされ	-11.1873
大井	-11.1876
ウルトラマン	-11.1877
を立て	-11.1879
ウェン	-11.188
いし	-11.188
世界的に	-11.1884
トリア	-11.1884
粗	-11.1884
ザクセン	-11.1884
をとり	-11.1884
rn	-11.1885
rock	-11.1886
もし	-11.1886
日光	-11.1887
ことになり	-11.1888
たものの	-11.1889
リーガ	-11.189
事業を	-11.1893
開かれた	-11.1893
流れる	-11.1894
а	-11.1895
ストレート	-11.1896
科目	-11.1896
の制作	-11.1896
是	-11.1897
news	-11.19
るようになる	-11.19
▁1933	-11.1905
ハリー	-11.1905
荷物	-11.1907
されることになった	-11.1907
気温	-11.1907
サーキット	-11.1907
1915	-11.1908
1872	-11.1909
1894	-11.1909
ram	-11.191
1600	-11.1912
ラッシュ	-11.1913
ラート	-11.1914
の主要な	-11.1916
救	-11.1917
ーネ	-11.1917
エキ	-11.1917
をつける	-11.1919
ではないが	-11.1919
オク	-11.192
ぴ	-11.192
住む	-11.1923
シルバー	-11.1923
乗車券	-11.1925
数え	-11.1927
公募	-11.1927
ベッド	-11.1927
現役引退	-11.1927
川沿い	-11.1928
隊は	-11.193
絡	-11.1933
砕	-11.1934
1908	-11.1934
山中	-11.1935
秩序	-11.1936
行動を	-11.1936
ドメイン	-11.1938
生存	-11.1939
lf	-11.1945
同校	-11.1946
億ドル	-11.1947
文政	-11.1948
ソウ	-11.1949
の歌	-11.1951
米ドル	-11.1951
圭	-11.1952
親衛隊	-11.1952
小学館	-11.1952
まつり	-11.1953
、1930	-11.1953
奴	-11.1954
コンパクト	-11.1954
貨	-11.1955
伏見	-11.1956
最強	-11.1956
墳	-11.1958
過ごし	-11.196
サンダー	-11.196
人の基礎自治体	-11.1962
1884	-11.1963
それ以降	-11.1964
送られた	-11.1967
地域では	-11.1967
報酬	-11.1967
貫通	-11.1968
赤色	-11.1968
笹	-11.1969
▁従って	-11.1969
出される	-11.197
上場	-11.1971
子を	-11.1972
祀	-11.1972
こうとうがっこう	-11.1973
▁趣味は	-11.1973
グレート	-11.1974
ニエ	-11.1974
遅	-11.1975
謀	-11.1975
支線	-11.1975
好み	-11.1978
成績は	-11.1978
斜	-11.1979
はないが	-11.1979
語源	-11.198
以来の	-11.1981
干渉	-11.1982
列車は	-11.1984
ies	-11.1984
シニア	-11.1987
1907	-11.1987
支払	-11.1989
を制作	-11.1989
の諸	-11.1992
の定義	-11.1993
は中国	-11.1994
交響楽団	-11.1997
fw	-11.1997
毎月	-11.1997
が開始され	-11.1997
wba	-11.1999
安全保障	-11.2001
zo	-11.2001
車庫	-11.2001
を与えられ	-11.2004
行使	-11.2005
関連の	-11.2005
log	-11.2006
ドラえもん	-11.2008
限られ	-11.2009
光学	-11.2009
貴重な	-11.201
▁もともと	-11.201
1953	-11.2011
曲は	-11.2012
寄せ	-11.2012
救済	-11.2014
1893	-11.2014
阿部	-11.2015
玩具	-11.2017
open	-11.2018
矛盾	-11.2019
根本	-11.2019
ブス	-11.2019
▁vi	-11.202
チームメイト	-11.2021
別に	-11.2022
直通	-11.2023
育った	-11.2025
会津	-11.2025
銀座	-11.2026
の生活	-11.2028
〜」	-11.2029
浴	-11.203
株主	-11.203
に転向	-11.203
二人は	-11.2033
留め	-11.2033
を掲載	-11.2033
以内に	-11.2035
因子	-11.2036
を避け	-11.2037
南京	-11.2038
しやすい	-11.2039
、1958	-11.2039
付いた	-11.2041
の経営	-11.2041
代表取締役	-11.2042
不定期	-11.2042
誰も	-11.2044
をもたらす	-11.2044
こちらは	-11.2046
交わ	-11.2047
映画祭	-11.2049
どんな	-11.2051
テレビ放送	-11.2052
ベス	-11.2053
上は	-11.2053
鹿島	-11.2054
さら	-11.2055
番手	-11.2057
に移動	-11.2058
崩れ	-11.2058
メニュー	-11.2062
個性	-11.2062
学校法人	-11.2062
首長	-11.2062
する際	-11.2062
、1944	-11.2063
たとえば	-11.2064
▁出典	-11.2065
125	-11.2066
母体	-11.2067
渋	-11.2067
、1949	-11.2071
▁→	-11.2071
プラザ	-11.2071
警察官	-11.2071
ハンター	-11.2072
家系	-11.2072
ベール	-11.2073
胃	-11.2073
を結成し	-11.2073
着工	-11.2074
機材	-11.2075
ができ	-11.2075
中華	-11.2077
キーボード	-11.2078
▁映画	-11.2078
期間中	-11.2078
津波	-11.2079
twitter	-11.208
表明	-11.2086
赤字	-11.2088
169	-11.2088
勢い	-11.2089
落選	-11.2089
同地	-11.2089
主流	-11.2092
ミール	-11.2092
バラエティ	-11.2094
夫の	-11.2095
led	-11.2095
▁man	-11.2097
女性の	-11.21
の伝統	-11.2103
に行った	-11.2103
天下	-11.2104
音響	-11.2105
▁その一方で	-11.211
ダンサー	-11.2111
に初めて	-11.2111
上述の	-11.2111
致	-11.2114
イカ	-11.2115
係数	-11.2115
国際的な	-11.2115
前進	-11.2115
筆頭	-11.2116
が決まった	-11.2118
101	-11.2118
存在した	-11.2119
を取った	-11.2119
と称し	-11.2119
スン	-11.2121
飲料	-11.2122
かね	-11.2125
っち	-11.2125
▁続く	-11.2126
を指し	-11.2126
1939	-11.2127
人として	-11.2129
中佐	-11.2129
笛	-11.2133
、1959	-11.2134
\	-11.2139
ラーメン	-11.2139
朝鮮半島	-11.2139
降下	-11.214
の種類	-11.2142
ジュー	-11.2143
▁ひろ	-11.2144
鉱物	-11.2144
決戦	-11.2144
基本的には	-11.2144
指令	-11.2145
総選挙	-11.2147
▁ch	-11.2149
フォート	-11.2149
審査員	-11.2149
日本海軍	-11.2149
シロ	-11.2151
王妃	-11.2151
見て	-11.2152
の要素	-11.2153
の人気	-11.2154
樹立	-11.2154
中継局	-11.2155
理由で	-11.2157
の距離	-11.2157
見せ	-11.2157
腫	-11.2157
▁1932	-11.2159
典型的な	-11.2161
年頃から	-11.2161
併設	-11.2162
ウォル	-11.2162
yu	-11.2162
を維持し	-11.2163
6000	-11.2164
代わり	-11.2165
高知県	-11.2166
釈	-11.2166
▁at	-11.2166
はら	-11.2167
後ろ	-11.2169
役職	-11.2171
絞	-11.2171
えば	-11.2172
▁血液型は	-11.2172
8000	-11.2174
ポルノ	-11.2174
理由として	-11.2176
は同年	-11.2178
食用	-11.218
休日	-11.2181
エラ	-11.2182
けた	-11.2182
ラト	-11.2185
ってしまう	-11.2185
ホンダ	-11.2187
再婚	-11.2191
を作って	-11.2192
符	-11.2194
▁+	-11.2197
週末	-11.2198
内蔵	-11.2199
ヲ	-11.2199
やその	-11.2203
オレ	-11.2204
サウンドトラック	-11.2206
ニョ	-11.2208
斑	-11.2208
珍しく	-11.2209
を満たす	-11.2209
マルコ	-11.221
の建物	-11.221
ぶつ	-11.2213
これまでの	-11.2213
と同一	-11.2217
委員会は	-11.2217
賃金	-11.2217
旗艦	-11.2218
察	-11.2219
宮崎県	-11.2221
保全	-11.2222
生え	-11.2223
ケア	-11.2224
されてしまう	-11.2224
スキル	-11.2224
名詞	-11.2225
入居	-11.2225
ストア	-11.2226
アーズ	-11.2228
幅広く	-11.2229
記者会見	-11.2229
マジック	-11.223
バルト	-11.223
があること	-11.2234
方法は	-11.2234
に仕え	-11.2235
相対	-11.2238
廃止され	-11.2238
ワース	-11.2238
党の	-11.2238
▁国際	-11.224
所在	-11.224
親子	-11.2241
二人の	-11.2241
線で	-11.2242
の規定	-11.2243
アダム	-11.2246
妻の	-11.2247
地域は	-11.2248
1885	-11.2248
セックス	-11.2251
▁tour	-11.2251
分から	-11.2252
オロ	-11.2252
サリ	-11.2253
島根県	-11.2254
1957	-11.2255
マレー	-11.2255
1891	-11.2255
エッ	-11.2256
ハルト	-11.2256
の一部は	-11.2258
臭	-11.2261
に復帰した	-11.2262
回避	-11.2265
取扱	-11.2265
きり	-11.2265
すみ	-11.2265
厩舎	-11.2267
に売却	-11.2269
レアル	-11.227
ヴォル	-11.227
することによって	-11.2271
のなかで	-11.2273
mvp	-11.2274
背番号	-11.2274
師匠	-11.2275
▁1934	-11.2276
いけ	-11.2277
志願	-11.2277
を形成し	-11.2277
傾斜	-11.2279
ピアニスト	-11.2281
平等	-11.2281
両が	-11.2283
ませ	-11.2283
レンジャー	-11.2283
inter	-11.2284
▁江戸時代	-11.2285
日産	-11.2285
に巻き込まれ	-11.2285
を奪われ	-11.2286
働いた	-11.2287
▁ii	-11.2287
4000	-11.2287
訪れた	-11.2288
鑑賞	-11.2289
に改称	-11.2289
点を	-11.229
になってから	-11.2292
今度は	-11.2292
シドニー	-11.2294
がよく	-11.2297
ブドウ	-11.23
欠場	-11.2302
ロボ	-11.2303
に復帰	-11.2304
1888	-11.2305
開始された	-11.2305
台頭	-11.2306
直前の	-11.2309
bra	-11.2309
仮想	-11.231
タク	-11.2316
の状態	-11.2317
じま	-11.2317
所で	-11.2317
が起きた	-11.2318
商業施設	-11.2319
の一種である	-11.232
▁サン	-11.2323
ウィー	-11.2323
声が	-11.2324
されていなかった	-11.2324
は中華人民共和国	-11.2325
十分に	-11.2325
リーズ	-11.2326
pre	-11.2328
首都圏	-11.233
出てくる	-11.233
頻度	-11.2333
使える	-11.2336
わせ	-11.2336
に建設された	-11.2336
沿いに	-11.2337
還元	-11.2339
年後	-11.2339
アルゴリズム	-11.234
まとめ	-11.234
金銭	-11.234
hot	-11.2341
出身のサッカー選手	-11.2343
婦人	-11.2344
企業の	-11.2345
年間で	-11.2345
佐野	-11.2346
町に	-11.2346
相互作用	-11.2347
馬力	-11.2348
に影響	-11.2348
撤退した	-11.2349
、1956	-11.2349
ふじ	-11.2349
描かれ	-11.235
小学	-11.2351
鳥類	-11.2351
商標	-11.2352
言えば	-11.2353
カワ	-11.2353
を設け	-11.2354
日立	-11.2354
支社	-11.2355
ァ	-11.2355
境内	-11.2355
っこ	-11.2358
エレベーター	-11.2359
キャン	-11.2359
センチメートル	-11.236
農地	-11.236
州刺史	-11.2361
1886	-11.2362
條	-11.2363
渓谷	-11.2363
こん	-11.2363
、1940	-11.2364
瀬戸	-11.2365
見直し	-11.2365
勧告	-11.2365
としており	-11.2365
ことであった	-11.2366
★	-11.2369
ei	-11.2369
進展	-11.237
の中心地	-11.2373
残存	-11.2374
郷土	-11.2375
初勝利	-11.2375
と称される	-11.2376
の意見	-11.2376
ブラッド	-11.2377
増え	-11.2377
写本	-11.2377
チェス	-11.2378
という設定	-11.238
を意味し	-11.2381
165	-11.2383
td	-11.2385
発行された	-11.2386
無視	-11.2388
運搬	-11.239
回想	-11.239
実戦	-11.239
1951	-11.2391
のシングル	-11.2391
社会党	-11.2391
埋葬	-11.2391
排出	-11.2393
種別	-11.2394
主権	-11.2394
三丁目	-11.2396
陶	-11.2398
が得られる	-11.2398
様な	-11.2399
アイデア	-11.2399
▁高校	-11.2401
キシ	-11.2402
が行われていた	-11.2404
区にある	-11.2405
閉店	-11.2405
階に	-11.2406
車で	-11.2406
に残る	-11.2407
佐世保	-11.2407
通っている	-11.2408
ロックバンド	-11.2408
の孫	-11.2409
グッド	-11.2409
同級生	-11.2409
国土交通省	-11.2411
ツォ	-11.2411
失われた	-11.2412
することが可能	-11.2412
鮮	-11.2413
イニング	-11.2413
収録されている	-11.2416
を再	-11.2417
ネーム	-11.2418
血液	-11.242
界の	-11.2424
隅	-11.2424
あや	-11.2427
部隊の	-11.2427
符号	-11.2428
した結果	-11.2428
投球	-11.2428
らしく	-11.2429
鳥取	-11.2432
を追い	-11.2432
合った	-11.2433
タナ	-11.2434
ドック	-11.2436
引き上げ	-11.2438
東京帝国大学	-11.2439
天神	-11.244
同月	-11.244
1892	-11.2441
ガールズ	-11.2442
源氏	-11.2442
出土	-11.2442
ライオン	-11.2444
閉じ	-11.2445
番号は	-11.2445
、1955	-11.2445
周囲に	-11.2447
宿泊	-11.2448
氏族	-11.2448
に向けた	-11.245
ビリー	-11.245
真実	-11.2451
乗務員	-11.2452
謎の	-11.2454
に乗って	-11.2454
▁そんな	-11.2456
斜面	-11.2456
交際	-11.2457
独自に	-11.2458
進め	-11.2459
リッチ	-11.2459
を余儀なくされた	-11.246
湊	-11.2461
送られ	-11.2463
マネー	-11.2464
そのため	-11.2465
マネジメント	-11.2465
鍋	-11.2466
ビング	-11.2467
創始	-11.2468
国土	-11.247
人も	-11.247
高等学校卒業	-11.2471
萩	-11.2472
▁これに対し	-11.2474
を超えた	-11.2474
棋士	-11.2476
最下位	-11.2476
初頭	-11.2477
度に	-11.2478
の一つとして	-11.248
キット	-11.248
一気に	-11.2481
思い出	-11.2482
ずっと	-11.2482
産地	-11.2482
神学	-11.2483
倭	-11.2483
プリン	-11.2483
告白	-11.2483
定期的に	-11.2485
チェル	-11.2485
続けて	-11.2488
年代前半	-11.2489
メチル	-11.249
点が	-11.249
傾	-11.249
加熱	-11.249
タイムズ	-11.2493
で行う	-11.2494
▁lo	-11.2494
アリー	-11.2496
っていたが	-11.2496
▁ある	-11.2498
を示している	-11.25
晃	-11.25
に生息する	-11.2501
なっていった	-11.2501
サマー	-11.2502
想	-11.2503
採掘	-11.2505
の差	-11.2506
太字	-11.2507
町域	-11.2507
判明	-11.2508
ヒン	-11.2509
1887	-11.251
pan	-11.2512
方は	-11.2513
受けた	-11.2513
▁これに対して	-11.2514
セガ	-11.2514
リティ	-11.2514
粒	-11.2517
といわれ	-11.2518
▁この他	-11.2519
年代初頭	-11.2519
除去	-11.2521
アンリ	-11.2521
を築いた	-11.2522
横綱	-11.2523
所に	-11.2523
スポ	-11.2525
rna	-11.2527
標的	-11.2529
、1952	-11.253
子に	-11.253
ゴス	-11.253
リメイク	-11.253
ベッ	-11.2532
確	-11.2533
橋梁	-11.2533
人であり	-11.2533
肢	-11.2533
部位	-11.2534
ue	-11.2534
の武将	-11.2536
滑走路	-11.2536
を実施した	-11.2538
立体	-11.2538
レム	-11.2539
メトロ	-11.2541
たのは	-11.2543
関係は	-11.2543
スペ	-11.2544
クラスの	-11.2545
仰	-11.2547
赤軍	-11.2548
策定	-11.2549
成立した	-11.255
ブン	-11.2551
しておらず	-11.2553
▁京都	-11.2556
エンタテインメント	-11.2557
るよう	-11.2557
書いている	-11.2557
▁天	-11.2558
をそのまま	-11.2559
それでも	-11.256
血管	-11.256
クリー	-11.2561
農場	-11.2561
ことはできない	-11.2562
災	-11.2562
ディスプレイ	-11.2562
下院	-11.2563
ting	-11.2564
1878	-11.2566
理念	-11.2567
整数	-11.2568
ワード	-11.2569
追跡	-11.2572
○	-11.2572
を演じ	-11.2573
自動的に	-11.2575
彗星	-11.2575
名乗り	-11.2576
山陽	-11.2576
訪れ	-11.2577
ガメ	-11.2577
サント	-11.2577
バイト	-11.2577
を進める	-11.2577
ものだ	-11.2578
会う	-11.2578
回目	-11.258
出会った	-11.2581
emi	-11.2581
エビ	-11.2582
メロディ	-11.2583
改築	-11.2583
本来は	-11.2585
活動している	-11.2585
イング	-11.2586
試合は	-11.2587
は無かった	-11.2587
貢	-11.2588
sen	-11.2589
1937	-11.2591
▁但し	-11.2591
かかり	-11.2592
挿入	-11.2593
暗号	-11.2593
考案	-11.2595
ji	-11.2597
に見	-11.2598
qua	-11.2599
ウェア	-11.26
μ	-11.26
入植	-11.2601
がなされ	-11.2603
地面	-11.2603
免疫	-11.2604
浸透	-11.2604
▁ver	-11.2605
年の国勢調査	-11.2605
掘	-11.2606
▁この場合	-11.2607
の養子	-11.2607
軽量	-11.2609
マリン	-11.261
決定戦	-11.261
そもそも	-11.2612
遅く	-11.2613
年間に	-11.2614
上空	-11.2615
メンバーは	-11.2615
1869	-11.2617
レンタル	-11.2619
切って	-11.2619
図書	-11.262
困難な	-11.2624
中央区	-11.2625
書類	-11.2625
かれる	-11.2626
哲学者	-11.2626
東京府	-11.2628
と合併し	-11.2628
主人公の	-11.2629
の運用	-11.2629
人格	-11.2633
していて	-11.2633
設計された	-11.2633
タウ	-11.2633
なかなか	-11.2633
las	-11.2634
率が	-11.2638
することもある	-11.2639
付与	-11.264
ことができない	-11.264
どのような	-11.264
が低い	-11.2641
あて	-11.2643
全体で	-11.2643
アース	-11.2644
参議院	-11.2648
ley	-11.2649
アンドレ	-11.2649
オールスター	-11.265
の象徴	-11.265
の起源	-11.265
皇族	-11.2651
表記は	-11.2651
リース	-11.2652
▁発売元は	-11.2652
の可能性	-11.2656
は特に	-11.2656
使用できる	-11.2656
工場で	-11.2658
の名で	-11.2658
年秋	-11.2659
牙	-11.2659
google	-11.266
ポリス	-11.266
ライナー	-11.266
そんな	-11.2661
大山	-11.2661
変わる	-11.2661
ure	-11.2661
棲	-11.2665
放送時間	-11.2666
なぜ	-11.2666
南北に	-11.2666
前提	-11.2668
見ることができる	-11.2669
▁mm	-11.2669
はかなり	-11.2671
バルブ	-11.2672
潜水	-11.2673
が決定した	-11.2673
裁判官	-11.2674
ium	-11.2675
時間を	-11.2675
明確な	-11.2675
管制	-11.2675
領事	-11.2676
終了し	-11.2677
かけた	-11.2678
狩猟	-11.2679
突入	-11.2681
乗降	-11.2682
▁1935	-11.2684
鳥取県	-11.2684
貨車	-11.2685
▁基本的に	-11.2686
▁1928	-11.2688
に対応した	-11.2688
以下に	-11.2688
呼ばれ	-11.2689
順序	-11.269
をマーク	-11.269
をかけ	-11.2691
他人	-11.2692
倒産	-11.2693
定住	-11.2694
ブッシュ	-11.2694
▁com	-11.2697
工程	-11.2701
以内	-11.2701
▁system	-11.2702
者と	-11.2702
終わる	-11.2703
▁郵便番号は	-11.2703
デバイス	-11.2703
海水	-11.2704
カルロス	-11.2707
用地	-11.2708
史上初の	-11.2708
寛政	-11.271
議会議員	-11.271
伝える	-11.271
クリスチャン	-11.271
曽	-11.2711
カロ	-11.2712
ach	-11.2713
することも	-11.2715
ッチャー	-11.2715
十両	-11.2715
坑	-11.2717
起動	-11.272
一門	-11.2722
柴	-11.2722
ニッ	-11.2723
微分	-11.2723
第五	-11.2723
久保	-11.2724
で構成されている	-11.2724
が可能な	-11.2724
のみを	-11.2725
彼女が	-11.2726
科学技術	-11.2729
法学	-11.273
こともあって	-11.2731
アルメニア	-11.2731
旗本	-11.2731
連動	-11.2736
年後に	-11.2736
架空の	-11.2738
ier	-11.2738
バナ	-11.2738
制服	-11.2739
予定だったが	-11.274
慎	-11.274
製作した	-11.2741
は無く	-11.2741
を参照のこと	-11.2742
顎	-11.2743
千人	-11.2744
救急	-11.2744
が開催された	-11.2744
コレ	-11.2745
父が	-11.2745
ベースボール	-11.2745
の管理	-11.2746
事前に	-11.2746
確か	-11.2747
現在まで	-11.2747
おらず	-11.2747
ファイト	-11.2748
撤去	-11.2748
に該当する	-11.2749
たちと	-11.275
敦	-11.2751
ヘー	-11.2751
早朝	-11.2754
を利用し	-11.2754
linux	-11.2755
運転台	-11.2755
作品として	-11.2758
治安	-11.2758
明るい	-11.2759
の主な	-11.276
ix	-11.2763
広島市	-11.2763
ルク	-11.2764
佐賀県	-11.2765
ムハンマド	-11.2765
チャンピオンズリーグ	-11.2765
に対しても	-11.2766
集め	-11.2767
サンド	-11.2768
結果は	-11.277
鄭	-11.2771
シナ	-11.2773
殺害された	-11.2774
ことなど	-11.2775
の登場	-11.2777
くれ	-11.2779
央	-11.278
も含めて	-11.278
存在していた	-11.278
工夫	-11.2781
ā	-11.2781
行なわれた	-11.2782
を深め	-11.2782
修士	-11.2782
会議で	-11.2783
セキュリティ	-11.2783
寿命	-11.2784
で構成され	-11.2785
やく	-11.2786
黒田	-11.2789
ことなく	-11.279
を執筆	-11.279
を目指し	-11.2791
西暦	-11.2791
1916	-11.2791
企業である	-11.2792
誤解	-11.2793
誓	-11.2795
▁sp	-11.2796
英文	-11.2797
フランツ	-11.2797
アナウンス	-11.2797
を追加	-11.2798
手続	-11.2798
建てられた	-11.28
台詞	-11.28
1905	-11.2803
直轄	-11.2804
暖	-11.2804
どちらか	-11.2804
教徒	-11.2805
づき	-11.2805
長に就任	-11.2805
地方裁判所	-11.2805
再興	-11.2805
pop	-11.2808
食糧	-11.2808
彼らが	-11.2808
を抑え	-11.281
かさ	-11.2812
告知	-11.2813
異動	-11.2814
完成した	-11.2815
拾	-11.2815
で放送	-11.2815
▁car	-11.2815
所得	-11.2815
身長	-11.2818
荒川	-11.2819
靖	-11.2819
はならなかった	-11.2819
トップチーム	-11.282
の意向	-11.2822
くま	-11.2822
の名前は	-11.2824
を送った	-11.2826
越前	-11.2827
鴨	-11.283
気動車	-11.283
ドッグ	-11.2832
軍用	-11.2835
足を	-11.2835
の記事	-11.2836
知らない	-11.284
の公式	-11.284
邸宅	-11.2842
上方	-11.2843
差異	-11.2844
プレーヤー	-11.2845
の土地	-11.2845
グロー	-11.2846
が進み	-11.2846
メラ	-11.2846
アプローチ	-11.2847
女性が	-11.2849
フェルト	-11.285
ずれ	-11.285
▁1929	-11.285
の名称は	-11.2851
年次	-11.2852
でプレー	-11.2852
擁護	-11.2854
助言	-11.2854
ウイ	-11.2855
で約	-11.2857
面では	-11.2858
リコ	-11.2859
ホット	-11.2861
シエ	-11.2862
仮定	-11.2862
フェイ	-11.2863
進み	-11.2863
育ち	-11.2867
ゃ	-11.2869
に直接	-11.2869
マット	-11.287
書簡	-11.2872
和平	-11.2872
ザール	-11.2874
療養	-11.2875
人口の	-11.2875
初当選	-11.2879
プレゼント	-11.288
月号から	-11.2881
描かれる	-11.2882
強豪	-11.2883
ポンプ	-11.2884
車が	-11.2886
の計	-11.2886
チケット	-11.2886
を付け	-11.2886
パンチ	-11.2887
解任	-11.2889
▁花	-11.2889
特徴的な	-11.289
バカ	-11.2891
を越えて	-11.2893
高地	-11.2893
日程	-11.2895
の技術	-11.2897
実態	-11.2898
利点	-11.2903
ローラ	-11.2904
題名	-11.2905
踏	-11.2906
ことができなかった	-11.2906
薄い	-11.2908
ドルフ	-11.2909
▁1927	-11.291
に留学	-11.291
深刻な	-11.2911
運行されている	-11.2911
が置かれ	-11.2912
、1946	-11.2912
も含む	-11.2913
半径	-11.2914
該当	-11.2915
際は	-11.2916
ker	-11.2916
国際連合	-11.2916
水泳	-11.2916
正常	-11.2917
ブレイク	-11.2917
アーム	-11.2918
撃破	-11.2918
バース	-11.2919
と並んで	-11.2919
の組み合わせ	-11.2921
▁現代	-11.2922
ari	-11.2922
無理	-11.2922
外野手	-11.2922
一般の	-11.2923
さわ	-11.2923
したもので	-11.2923
重視	-11.2923
発症	-11.2923
寄贈	-11.2925
頃まで	-11.2926
人組	-11.2926
招聘	-11.2926
月中旬	-11.2927
コック	-11.2927
長谷川	-11.2928
城に	-11.2928
れて	-11.2931
、1943	-11.2932
幼児	-11.2933
さらなる	-11.2933
撃退	-11.2935
数多く	-11.2936
最高裁判所	-11.2936
時代劇	-11.2936
パイプ	-11.2937
の割合	-11.2937
事務局	-11.294
ins	-11.2941
ハインリヒ	-11.2943
したとき	-11.2944
乗組員	-11.2945
▁よし	-11.2945
ことにした	-11.2945
福山	-11.2949
mil	-11.295
本作は	-11.2951
▁z	-11.2951
、1954	-11.2951
楠	-11.2953
▁上記の	-11.2953
▁ta	-11.2953
違	-11.2954
書を	-11.2954
ぷ	-11.2955
多大な	-11.2956
津軽	-11.2956
akb	-11.2956
の部分	-11.2957
犠牲者	-11.2958
出入口	-11.2958
ウェー	-11.2959
に収録	-11.296
が無く	-11.2962
エミ	-11.2967
蒸気機関車	-11.2968
元帥	-11.2968
155	-11.297
開通した	-11.2971
主催の	-11.2972
を皮切りに	-11.2973
エリック	-11.2974
忠実	-11.2975
補強	-11.2977
に編入された	-11.298
に大きく	-11.2981
▁we	-11.2981
タービン	-11.2982
喪失	-11.2982
▁1931	-11.2983
爪	-11.2984
が含まれている	-11.2984
食い	-11.2984
使用している	-11.2985
実際は	-11.2986
見られた	-11.2987
az	-11.2987
が発見された	-11.2987
マック	-11.2988
▁その際	-11.2988
を防ぐため	-11.2989
青木	-11.2989
宇宙船	-11.299
パンク	-11.299
を見せる	-11.299
河口	-11.2993
番組である	-11.2993
を巡って	-11.2995
▁1924	-11.2995
進軍	-11.2998
に戻って	-11.3001
star	-11.3001
名目	-11.3001
試合を	-11.3001
レイク	-11.3002
補償	-11.3002
いっ	-11.3003
マイナー	-11.3004
事前	-11.3005
燃	-11.3006
インドの	-11.3006
攻勢	-11.3007
兼任	-11.3009
箱根	-11.301
が主	-11.3011
カート	-11.3011
名所	-11.3012
量子	-11.3012
安定した	-11.3013
司祭	-11.3014
cre	-11.3015
シーズンに	-11.3016
アキ	-11.3017
ピッチ	-11.3018
一般的には	-11.3018
同行	-11.3021
を受けていた	-11.3021
ティル	-11.3023
普通の	-11.3025
eg	-11.3026
通常盤	-11.3026
ことがあった	-11.3027
開校	-11.3028
制作した	-11.3029
庶民	-11.3029
ウォール	-11.303
まっている	-11.3031
と思い	-11.3031
ボーイング	-11.3032
1889	-11.3033
cle	-11.3034
全車	-11.3035
ネコ	-11.3037
書いて	-11.3038
シーズンには	-11.3038
ファーム	-11.3038
の中間	-11.3039
ib	-11.3039
1860	-11.304
mat	-11.3041
それほど	-11.3042
を有している	-11.3042
プロレスラー	-11.3042
学的	-11.3044
弾圧	-11.3045
望遠鏡	-11.3045
区間は	-11.3046
までの間	-11.3046
リッジ	-11.3048
探索	-11.305
と共演	-11.3051
有利	-11.3052
の著作	-11.3052
缶	-11.3053
過ごす	-11.3053
組んだ	-11.3054
ばかりの	-11.3055
一行	-11.3055
させられた	-11.3057
入れ替え	-11.3057
その結果	-11.3057
指数	-11.3057
用品	-11.3057
松田	-11.3058
テイラー	-11.3059
スティック	-11.3059
三条	-11.306
を卒業後	-11.3061
▁cd	-11.3061
はすでに	-11.3061
防災	-11.3064
、1942	-11.3064
new	-11.3066
に変更した	-11.3067
台地	-11.3067
苗	-11.3069
られず	-11.3069
あれ	-11.307
今作	-11.307
心を	-11.3073
▁毎年	-11.3073
聖堂	-11.3075
の拡大	-11.3075
川口	-11.3076
へい	-11.3076
▁原作	-11.3077
円形	-11.3078
フード	-11.3078
を卒業し	-11.308
壮	-11.3081
本当に	-11.3082
破綻	-11.3082
責	-11.3083
リスナー	-11.3083
ものではなく	-11.3083
システムは	-11.3083
大久保	-11.3084
二度	-11.3084
はん	-11.3084
掘り	-11.3084
書房	-11.3085
積分	-11.3085
同人	-11.3085
スと	-11.3086
ストック	-11.3088
▁1925	-11.3088
全国大会	-11.309
モジュール	-11.309
と考えていた	-11.309
窓口	-11.3092
も可能	-11.3093
警視庁	-11.3094
歯科	-11.3095
自由党	-11.3095
メンバーが	-11.3097
されることもある	-11.3097
オリンピックの	-11.3098
1938	-11.3098
還	-11.3098
マケドニア	-11.3099
投下	-11.3099
love	-11.31
も含め	-11.31
1906	-11.3101
コイ	-11.3102
シュタット	-11.3103
捉え	-11.3103
バク	-11.3103
á	-11.3104
話を	-11.3104
1936	-11.3105
パキスタン	-11.3105
となるが	-11.3105
熱帯	-11.3106
に興味	-11.3107
ベンチ	-11.3107
中日	-11.3107
の指導者	-11.3107
規	-11.3108
の発売	-11.3109
ディーゼル	-11.3109
アフガニスタン	-11.3109
スペインの	-11.3112
フン	-11.3113
法は	-11.3114
鱗	-11.3115
出身の元プロ野球選手	-11.3116
日本海	-11.3117
も務めた	-11.3118
レイン	-11.3121
武蔵野	-11.3121
ここから	-11.3123
リンカーン	-11.3123
せて	-11.3123
近隣の	-11.3124
リヒ	-11.3125
ガム	-11.3126
という形で	-11.3126
主演の	-11.3127
されることとなった	-11.3127
大学校	-11.3127
を決定した	-11.3127
ソフトバンク	-11.3129
▁市立小	-11.3129
ピオ	-11.3129
右側	-11.313
ナレーション	-11.313
統括	-11.3131
の発生	-11.3131
本作では	-11.3132
オイル	-11.3132
二十	-11.3133
van	-11.3133
、1951	-11.3135
キリ	-11.3138
芸名	-11.3139
武帝	-11.314
あさ	-11.314
といって	-11.314
で死去	-11.3141
慶應義塾大学	-11.3141
副会長	-11.3142
住吉	-11.3143
南朝	-11.3143
プト	-11.3145
衡	-11.3146
が残る	-11.3146
ボランティア	-11.3147
社会学	-11.3148
尼	-11.3148
務める	-11.3149
を対象に	-11.315
略奪	-11.3151
jst	-11.3152
自国	-11.3152
測量	-11.3153
о	-11.3153
受け入れられ	-11.3154
表す	-11.3154
を結び	-11.3155
交付	-11.3155
務めた	-11.3155
なって	-11.3156
ヴィス	-11.3156
理事会	-11.3157
症候群	-11.3157
▁最終的に	-11.3157
ベック	-11.3159
部門で	-11.3159
ボリ	-11.316
に移行	-11.316
らせた	-11.316
世間	-11.3163
部隊が	-11.3164
出産	-11.3165
内外	-11.3166
帆	-11.3167
が設立され	-11.3169
番艦	-11.3169
姫路	-11.317
のタイトル	-11.3172
モンド	-11.3173
掲載されている	-11.3175
年度から	-11.3176
千代	-11.3176
がなされている	-11.3179
調節	-11.3179
サード	-11.318
教団	-11.3181
環状	-11.3181
難民	-11.3182
有数の	-11.3186
欠点	-11.3187
をつけた	-11.3187
作られる	-11.3188
ren	-11.3188
入った	-11.3188
nfl	-11.3189
孤立	-11.3189
審議会	-11.319
日午前	-11.319
潰	-11.319
俣	-11.319
閣僚	-11.319
ヴィクトリア	-11.319
川と	-11.3192
くろ	-11.3193
フロリダ	-11.3193
浸	-11.3194
おん	-11.3195
ani	-11.3196
追われ	-11.3197
標識	-11.3198
車輪	-11.3199
起工	-11.32
世話	-11.32
派遣された	-11.3201
生活を	-11.3202
月曜	-11.3204
会見	-11.3204
ソース	-11.3206
酔	-11.3207
破壊された	-11.3209
開き	-11.3209
マニア	-11.3209
ことがあり	-11.321
戦った	-11.321
オブジェクト	-11.3211
世紀には	-11.3211
死に	-11.3213
同市	-11.3213
ッシング	-11.3214
高木	-11.3214
、1957	-11.3215
必須	-11.3216
高温	-11.3218
ムーン	-11.3218
長は	-11.322
沈没	-11.3222
ときには	-11.3223
の役割	-11.3224
新興	-11.3224
運び	-11.3225
、1941	-11.3225
が用意され	-11.3226
客室	-11.323
に出走	-11.3231
パーティ	-11.3231
ホッ	-11.3231
パロディ	-11.3232
ブルック	-11.3232
謝	-11.3234
場所は	-11.3235
その間	-11.3236
邑	-11.3236
侵害	-11.3236
とみられる	-11.3237
を建て	-11.3239
チームを	-11.3239
に収録されている	-11.324
は何	-11.3241
臼	-11.3241
三人	-11.3241
が続く	-11.3241
減少した	-11.3242
道徳	-11.3242
play	-11.3242
線の駅	-11.3244
プロ入り	-11.3245
でプレーし	-11.3246
を問わず	-11.3246
東アジア	-11.3247
割合	-11.3247
問題が	-11.3248
小島	-11.325
もう一つ	-11.325
を発見し	-11.325
ナール	-11.3251
簡	-11.3251
ドクター	-11.3253
▁もっとも	-11.3254
カレー	-11.3254
ano	-11.3255
1882	-11.3255
に就任する	-11.3256
のライブ	-11.3257
不在	-11.3257
北上	-11.3257
史跡	-11.3258
批評	-11.3258
が起き	-11.3262
▁inc	-11.3262
直し	-11.3263
wo	-11.3266
していたこと	-11.3269
抽選	-11.327
に選ばれ	-11.3271
作動	-11.3271
多くは	-11.3271
直ちに	-11.3272
伊東	-11.3272
伝道	-11.3272
リン酸	-11.3273
どれ	-11.3274
スピン	-11.3275
1876	-11.328
写像	-11.328
ロット	-11.3281
ser	-11.3281
パシフィック	-11.3281
▁隣接するコムーネは以下の通り	-11.3281
放射線	-11.3282
記録は	-11.3282
一日	-11.3283
はそのまま	-11.3284
dis	-11.3284
ちょうど	-11.3287
母は	-11.3288
に耐え	-11.3289
定められ	-11.329
ell	-11.3291
大型の	-11.3291
綴	-11.3292
危険性	-11.3292
獲得した	-11.3292
オリコン	-11.3294
の主張	-11.3295
洞窟	-11.3295
、1953	-11.3296
ない限り	-11.3297
ギャグ	-11.3299
崖	-11.3299
ムン	-11.33
ごとの	-11.33
牝馬	-11.3302
おこ	-11.3302
▁he	-11.3304
を担う	-11.3304
チェスター	-11.3305
歩道	-11.3305
オートバイ	-11.3306
窪	-11.3306
とみなされ	-11.3308
グレン	-11.3309
住民の	-11.3309
ace	-11.3309
工科大学	-11.3313
を残している	-11.3314
前日	-11.3314
愛知県名古屋市	-11.3315
祖先	-11.3316
で活躍した	-11.3318
バージニア州	-11.3318
が成立する	-11.3318
シベリア	-11.3319
▁fa	-11.3319
が現れる	-11.3319
松井	-11.332
小規模な	-11.332
あって	-11.332
意志	-11.332
延び	-11.332
得た	-11.3321
戦後の	-11.3321
世界に	-11.3323
ワイルド	-11.3324
として参加	-11.3324
書く	-11.3324
肌	-11.3325
を手に入れ	-11.3325
奪	-11.3325
決意	-11.3326
路線は	-11.3326
▁この時期	-11.3326
▁当時は	-11.3329
嫌い	-11.333
の一つで	-11.333
を認める	-11.3333
飼	-11.3333
動く	-11.3333
移動する	-11.3334
が生じた	-11.3334
を高める	-11.3335
選出された	-11.3335
江戸時代の	-11.3342
を与えられた	-11.3342
から成る	-11.3343
が設立された	-11.3344
は完全に	-11.3345
が流れ	-11.3347
over	-11.3348
と見られる	-11.3349
ヘリ	-11.3349
告発	-11.3349
がおり	-11.335
活動は	-11.335
の企画	-11.3351
実証	-11.3352
然と	-11.3352
貧困	-11.3355
拳銃	-11.3355
朝日新聞	-11.3357
に任じられた	-11.3357
選ばれ	-11.3358
緊張	-11.3359
たことで	-11.3359
に選出され	-11.3359
を舞台に	-11.336
最終戦	-11.336
勝利した	-11.336
住人	-11.336
▁それから	-11.3362
家屋	-11.3363
太鼓	-11.3364
川水系	-11.3368
dia	-11.337
知らせ	-11.3371
かに	-11.3372
1874	-11.3373
完全移籍	-11.3373
洪	-11.3374
徳川家康	-11.3375
バスク	-11.3376
巡目	-11.3376
インディ	-11.3377
帰国した	-11.3377
を連れて	-11.3377
悲劇	-11.3379
▁慶長	-11.3381
sch	-11.3382
稚	-11.3384
集まった	-11.3384
を名乗る	-11.3384
可決	-11.3385
更	-11.3386
京王	-11.3387
飛行隊	-11.3387
に代わり	-11.3388
ということで	-11.3388
が放送された	-11.3389
設立され	-11.3391
以降に	-11.3392
に触れ	-11.3394
はまた	-11.3394
大統領選挙	-11.3397
fs	-11.34
磐	-11.3401
を導入し	-11.3402
というのは	-11.3402
間接	-11.3404
内容を	-11.3404
任意	-11.3405
ざる	-11.3408
スターリン	-11.3408
ドコモ	-11.3409
の拠点	-11.341
を助け	-11.3413
日本一	-11.3413
アミ	-11.3413
▁my	-11.3413
哀	-11.3414
悔	-11.3414
現存	-11.3417
雀	-11.342
首脳	-11.342
てつ	-11.3421
▁第一次世界大戦	-11.3425
異例	-11.3425
ハードウェア	-11.3425
nes	-11.3427
同型	-11.343
sr	-11.343
を掛け	-11.3431
この頃	-11.3431
車両の	-11.3432
マンチェスター	-11.3435
ノキ	-11.3435
集英社	-11.3436
手前	-11.3437
露出	-11.3438
わし	-11.344
▁英語	-11.3441
上院議員	-11.3443
土器	-11.3443
入門	-11.3444
御所	-11.3445
ウィルソン	-11.3445
系図	-11.3447
与党	-11.3447
斬	-11.3448
復旧	-11.3451
クラン	-11.3452
▁これまで	-11.3454
安全性	-11.3454
ウルフ	-11.3454
剥	-11.3455
トロント	-11.3455
危	-11.3456
問題を	-11.3456
コミューン	-11.3457
らせる	-11.3458
後者は	-11.3459
ゆえに	-11.3459
uc	-11.346
ジョージア	-11.3463
テクノロジー	-11.3464
覧	-11.3464
設けられ	-11.3464
交響曲	-11.3465
囲碁	-11.3466
sw	-11.3467
に多く	-11.3467
隈	-11.3468
に接する	-11.3471
gb	-11.3471
再選	-11.3471
渡す	-11.3473
魔女	-11.3473
cho	-11.3474
存在している	-11.3474
1800	-11.3476
1879	-11.3476
ポロ	-11.3476
の大部分	-11.3477
短期大学	-11.3478
溜	-11.3478
und	-11.3479
トリック	-11.348
ou	-11.3482
考古学	-11.3483
変遷	-11.3484
恐竜	-11.3487
ゴリ	-11.3488
ev	-11.3488
共産主義	-11.3488
100%	-11.349
▁1923	-11.3491
アント	-11.3491
ランダム	-11.3492
わけではなく	-11.3492
多少	-11.3492
形に	-11.3493
菊池	-11.3493
ダート	-11.3494
コイン	-11.3494
販売する	-11.3494
blue	-11.3497
名鉄	-11.3497
オフに	-11.3498
側近	-11.3499
▁これによって	-11.3499
▁or	-11.3501
筋肉	-11.3501
宜	-11.3501
を走る	-11.3503
エクスプレス	-11.3503
クハ	-11.3505
色彩	-11.3505
なっていた	-11.3505
を寄せ	-11.3505
167	-11.3506
アーチ	-11.3507
逮捕され	-11.3507
挟	-11.3508
動脈	-11.3508
神々	-11.3509
との戦い	-11.3511
停車する	-11.3512
体は	-11.3512
研究員	-11.3513
キエフ	-11.3519
決断	-11.3521
絵本	-11.3522
小規模	-11.3524
容易	-11.3524
を避けるため	-11.3525
船橋	-11.3526
に任じられ	-11.3526
急遽	-11.3526
と同等	-11.3526
を伝える	-11.3526
コラム	-11.3526
合体	-11.3527
は旧	-11.3528
大幅な	-11.3528
造船	-11.353
年生の	-11.3532
わせる	-11.3533
に任命され	-11.3534
揚げ	-11.3536
大津	-11.3536
を上回る	-11.354
アルミ	-11.3542
分野で	-11.3543
反論	-11.3544
それらは	-11.3544
原稿	-11.3544
ダール	-11.3547
艦船	-11.3548
高まり	-11.3548
一貫して	-11.355
後輩	-11.3551
販売された	-11.3551
設定された	-11.3552
ö	-11.3552
政界	-11.3553
の友人	-11.3554
1881	-11.3554
デッキ	-11.3554
ml	-11.3556
ジェリー	-11.3556
ニル	-11.3557
働	-11.356
1875	-11.3561
ない場合	-11.3563
開店	-11.3563
支持者	-11.3563
杜	-11.3565
灘	-11.3565
住友	-11.3566
pk	-11.3569
セールス	-11.3569
豊富な	-11.3569
を相手に	-11.357
を聞き	-11.357
背中	-11.3571
と信じ	-11.3571
麺	-11.3574
悠	-11.3574
シェー	-11.3574
間違い	-11.3575
外国語	-11.3575
▁通称	-11.3575
夫は	-11.3576
つつも	-11.3577
アイス	-11.3577
昨	-11.3578
を食べる	-11.3579
信頼性	-11.3579
重い	-11.3581
に指定され	-11.3582
ハマ	-11.3582
ダグラス	-11.3583
ホイ	-11.3583
上がって	-11.3585
グマ	-11.3585
売買	-11.3586
戦争で	-11.3588
ハナ	-11.3589
イギリス海軍	-11.3591
メリット	-11.3592
田園	-11.3592
破産	-11.3593
をかけた	-11.3593
解散した	-11.3594
▁ほか	-11.3595
に加わった	-11.3597
文法	-11.3598
日本政府	-11.3598
の勝利	-11.36
彰	-11.3602
side	-11.3602
oo	-11.3605
東区	-11.3606
把握	-11.3607
つとめ	-11.3607
砲弾	-11.3608
オファー	-11.3609
ネク	-11.3614
ヘッセン	-11.3614
おおむね	-11.3615
醸造	-11.3615
構	-11.3617
が同じ	-11.3618
両側	-11.3619
と称した	-11.362
入り口	-11.3621
建造された	-11.3621
が立ち	-11.3621
食堂	-11.3621
を聞いた	-11.3622
作成した	-11.3622
紙幣	-11.3623
を全て	-11.3624
ゲスト出演	-11.3625
チェロ	-11.3626
残っていた	-11.3626
に当たって	-11.3628
科学的	-11.3628
▁続いて	-11.3629
ーレ	-11.3631
青い	-11.3631
はしばしば	-11.3631
▁vol	-11.3631
各地に	-11.3633
アレクサンドル	-11.3637
援軍	-11.3637
スタートした	-11.3639
に続き	-11.364
can	-11.364
代謝	-11.364
鉄道が	-11.3641
進んだ	-11.3641
選手団	-11.3641
▁通称は	-11.3641
騎士団	-11.3642
惨	-11.3642
ことができず	-11.3645
なみ	-11.3646
ライス	-11.3646
お互い	-11.3647
が設けられている	-11.3648
毎日放送	-11.3649
フランソワ	-11.365
ラール	-11.3652
など様々な	-11.3652
隊が	-11.3652
の協力	-11.3654
▁1918	-11.3656
mit	-11.3657
ウマ	-11.3657
中国人	-11.3659
▁pe	-11.366
10%	-11.3661
じゅん	-11.3662
この番組	-11.3662
フォーム	-11.3663
▁清	-11.3663
豚	-11.3664
以	-11.3664
さく	-11.3667
もはや	-11.3671
一等	-11.3672
介護	-11.3672
情報番組	-11.3676
最長	-11.3676
を採用	-11.3677
祖母	-11.3677
何度か	-11.3678
市で	-11.3679
▁by	-11.3679
枚目の	-11.3681
となったため	-11.3681
づくり	-11.3681
利用する	-11.3682
を歴任した	-11.3682
予告	-11.3683
氷河	-11.3683
狩り	-11.3683
笑い	-11.3683
の一員として	-11.3685
演じる	-11.3685
オープンした	-11.3686
ung	-11.3686
▁それまで	-11.3686
ラード	-11.3687
人目	-11.3688
骨折	-11.3689
現職	-11.369
1864	-11.3691
問題は	-11.3692
前年の	-11.3693
うら	-11.3694
叩き	-11.3697
が廃止され	-11.3697
ズが	-11.3697
憂	-11.3698
構内	-11.37
グッズ	-11.37
mbs	-11.3701
として生まれる	-11.3702
幾つかの	-11.3702
を奪い	-11.3703
計測	-11.3703
所管	-11.3703
ッグ	-11.3704
につれて	-11.3704
に転じた	-11.3706
が登場し	-11.3707
light	-11.3707
アフ	-11.3707
外交官	-11.3709
low	-11.371
アポロ	-11.371
歳以下	-11.371
イタリア語	-11.3714
全世界	-11.3716
進水	-11.3716
▁当駅	-11.3717
1877	-11.3717
ピース	-11.3718
ところに	-11.3718
遺構	-11.3718
利用可能	-11.372
起き	-11.372
trans	-11.3722
収容所	-11.3722
注文	-11.3723
にある公立小学校	-11.3724
に置かれた	-11.3729
推奨	-11.3729
開発した	-11.373
の総称	-11.3732
コーラス	-11.3732
励	-11.3733
を覚え	-11.3733
▁本項では	-11.3734
ナビ	-11.3734
トリノ	-11.3735
dt	-11.3735
に持ち	-11.3735
左側	-11.3736
を失う	-11.3737
公的	-11.3737
寛永	-11.3737
拡大した	-11.3739
産物	-11.374
に際し	-11.3742
シーズンの	-11.3742
想像	-11.3743
断層	-11.3743
縛	-11.3744
さを	-11.3745
アト	-11.3745
マルク	-11.3745
特有の	-11.3747
式で	-11.3748
窮	-11.3749
が一般的	-11.3749
は一切	-11.3749
dream	-11.375
ara	-11.3751
をめぐる	-11.3751
を挙げている	-11.3751
行方不明	-11.3751
地として	-11.3753
へ移籍した	-11.3753
凝	-11.3759
発見した	-11.3759
殺人事件	-11.3759
ハンドル	-11.376
階層	-11.376
ことが多かった	-11.376
遇	-11.3761
年前に	-11.3761
をいう	-11.3762
アパート	-11.3762
高麗	-11.3762
意思	-11.3762
本数	-11.3763
に備え	-11.3764
暮らす	-11.3764
などにも	-11.3766
yl	-11.3769
を起用	-11.377
デュー	-11.3771
の妹	-11.3771
ハミルトン	-11.3773
をあげた	-11.3774
で唯一	-11.3774
▁初期の	-11.3775
を勝ち	-11.3775
詳細な	-11.3776
生じた	-11.3776
エントリー	-11.3777
持続	-11.3777
浅野	-11.3777
type	-11.3778
だけである	-11.3778
国語	-11.378
連敗	-11.3781
暁	-11.3782
受容体	-11.3782
ミドル	-11.3783
明かし	-11.3783
ことはなかった	-11.3784
復讐	-11.3786
べる	-11.3788
とく	-11.3788
として生まれた	-11.3789
ジョセフ	-11.379
ノア	-11.379
を搭載する	-11.379
化されている	-11.379
本州	-11.379
描き	-11.3792
部で	-11.3793
安田	-11.3793
高度な	-11.3793
を知った	-11.3795
試合に出場	-11.3797
クン	-11.3797
と呼んだ	-11.3797
年末に	-11.3798
各国の	-11.3798
はそれ	-11.3798
始動	-11.3799
せつ	-11.3799
フロリダ州	-11.3801
ref	-11.3801
ess	-11.3801
懲役	-11.3802
に用いる	-11.3802
に収め	-11.3803
としての活動	-11.3803
▁1926	-11.3804
を取って	-11.3804
蓄積	-11.3805
競輪	-11.3806
やってきた	-11.3807
釈放	-11.3807
添え	-11.3808
連続で	-11.3808
容器	-11.3808
を中心として	-11.3809
の構造	-11.381
劇中	-11.381
ナトリウム	-11.3813
の治世	-11.3814
中京	-11.3814
か国	-11.3814
する方法	-11.3815
ks	-11.3816
blu	-11.3816
ケネディ	-11.3818
を獲得する	-11.3819
の総	-11.3819
に見える	-11.3821
ナイター	-11.3823
結婚式	-11.3824
再会	-11.3824
マイン	-11.3824
安芸	-11.3824
前者	-11.3826
嘆	-11.3826
伝記	-11.383
景気	-11.3831
cer	-11.3831
最後は	-11.3832
ラヴ	-11.3833
を引き起こす	-11.3833
も同じ	-11.3834
婚約	-11.3835
ッサー	-11.3835
デール	-11.3835
は困難	-11.3836
日本の政治家	-11.3836
アルプス	-11.3837
作る	-11.3839
初回限定盤	-11.384
に恵まれ	-11.3841
呼びかけ	-11.3843
認められた	-11.3845
計画が	-11.3845
媒体	-11.3846
在日	-11.3846
▁da	-11.3847
を越える	-11.3848
▁尚	-11.3848
に編入	-11.385
話す	-11.3851
内務省	-11.3852
フェラーリ	-11.3855
form	-11.3856
自作	-11.3856
本人は	-11.3857
▁元々は	-11.3857
ワーナー	-11.3857
フォーマット	-11.3858
了	-11.386
の形状	-11.3864
勝ちを収め	-11.3864
ギャラリー	-11.3865
をつけて	-11.3865
がれ	-11.3865
駅名	-11.3866
ヶ谷	-11.3867
郡山	-11.3867
であったこと	-11.3868
州内	-11.3868
せよ	-11.3869
割引	-11.3871
hr	-11.3871
ジェフ	-11.3872
人物である	-11.3872
思考	-11.3873
ミズ	-11.3875
スタンダード	-11.3875
播磨	-11.3875
ジェル	-11.3876
鉛	-11.3877
電動	-11.3877
しまった	-11.3879
qu	-11.388
大塚	-11.3881
メートルの	-11.3882
旅館	-11.3882
が建設され	-11.3882
を防ぐ	-11.3883
惣	-11.3884
優秀な	-11.3885
1862	-11.3885
tan	-11.3887
を巡る	-11.3888
旭川	-11.3891
テレビ局	-11.3891
が特徴である	-11.3891
の影響を受け	-11.3891
に渡る	-11.3891
心配	-11.3892
突如	-11.3892
に使用される	-11.3892
アップル	-11.3895
胎	-11.3895
目立つ	-11.3895
パール	-11.3896
を踏まえ	-11.3898
、1920	-11.3898
危険な	-11.3899
幾何学	-11.39
音楽家	-11.3902
入れた	-11.3902
ターゲット	-11.3902
の準備	-11.3904
町立	-11.3905
が与えられ	-11.3909
位となり	-11.3911
出現する	-11.3912
展示されている	-11.3912
簿	-11.3915
デルタ	-11.3916
gk	-11.3916
▁サ	-11.3917
重要である	-11.3917
▁韓国	-11.3918
だったという	-11.3918
父親の	-11.3919
改札口	-11.3921
するような	-11.3921
の弟子	-11.3921
民営化	-11.3922
人物が	-11.3923
上から	-11.3924
復活した	-11.3924
っか	-11.3925
1933	-11.3926
▁中世	-11.3926
とする説	-11.3927
を決定する	-11.3927
出演する	-11.3928
関係を	-11.393
を強く	-11.3931
7000	-11.3932
の分野で	-11.3933
掌	-11.3935
否	-11.3935
大谷	-11.3936
ウォン	-11.3937
吉川	-11.3937
太子	-11.3937
役の	-11.3938
ッソ	-11.3938
国際映画祭	-11.3939
▁1919	-11.3939
を残し	-11.394
自らが	-11.394
国内外	-11.394
奪還	-11.3941
品川	-11.3941
数少ない	-11.3941
原田	-11.3942
したことから	-11.3943
水源	-11.3943
必	-11.3944
万年前	-11.3944
神戸市	-11.3945
▁加えて	-11.3945
に就いた	-11.3946
を製作	-11.3946
付けられ	-11.3946
アトランタ	-11.3946
を開いた	-11.3947
転用	-11.3948
全土	-11.3948
配信された	-11.3949
シンガーソングライター	-11.3952
が実現	-11.3953
現れる	-11.3953
の無い	-11.3953
に移し	-11.3954
1935	-11.3955
嫡男	-11.3955
線形	-11.3956
学校で	-11.3958
言われ	-11.3958
▁ある日	-11.3959
フランクフルト	-11.3959
コミ	-11.3961
悩	-11.3963
サンデー	-11.3964
先代	-11.3964
が続き	-11.3966
砂糖	-11.3966
上院	-11.3967
題材	-11.3967
と主張している	-11.3968
慣習	-11.3968
を失って	-11.3968
重大な	-11.3968
くじ	-11.3969
縫	-11.397
pd	-11.3971
▁an	-11.3972
が出来	-11.3973
cia	-11.3973
で敗れ	-11.3973
1934	-11.3973
シャツ	-11.3974
▁ゆう	-11.3974
tion	-11.3975
高層	-11.3975
卒業生	-11.3977
cha	-11.3977
内部に	-11.3978
渋滞	-11.3979
を攻め	-11.3981
鳥羽	-11.3983
新生	-11.3983
コンスタン	-11.3984
盲	-11.3986
北アメリカ	-11.3986
ムービー	-11.3993
との契約	-11.3995
契約を	-11.3997
墜落	-11.3998
内は	-11.3998
小笠原	-11.3999
明石	-11.3999
徴収	-11.4
流用	-11.4
に向かい	-11.4
つながり	-11.4001
高かった	-11.4002
申し出	-11.4002
特別番組	-11.4003
慕容	-11.4004
ヒロ	-11.4004
を止め	-11.4005
馬車	-11.4005
アニメ版	-11.4007
自立	-11.4008
サッカーリーグ	-11.4008
グリー	-11.401
メロ	-11.4012
ユニバーサル	-11.4012
当選した	-11.4014
生産された	-11.4014
通商	-11.4016
見られない	-11.4017
換え	-11.4017
日放送分	-11.4017
1883	-11.4018
カーン	-11.402
蹴	-11.4023
全曲	-11.4023
ste	-11.4024
去る	-11.4024
考察	-11.4024
どのように	-11.4024
を組んで	-11.4025
1932	-11.4027
に収録された	-11.4028
果たし	-11.4029
式典	-11.403
ャ	-11.403
れい	-11.403
近郊の	-11.4031
長を務めた	-11.4032
作目の	-11.4033
津市	-11.4034
じる	-11.4035
求め	-11.4036
稽古	-11.4036
通りに	-11.4039
に応じ	-11.4039
歳の時	-11.4039
▁金	-11.4039
に応え	-11.4039
先住民	-11.404
ゆく	-11.4041
キャップ	-11.4042
▁そのほか	-11.4043
この試合	-11.4043
が進められ	-11.4044
ようなもの	-11.4045
を考え	-11.4045
中毒	-11.4046
▁パ	-11.4047
顕著	-11.4048
は多くの	-11.4049
泡	-11.4049
▁本作の	-11.405
let	-11.4051
朝鮮人	-11.4052
保障	-11.4054
各々	-11.4055
石垣	-11.4057
アラビア語	-11.4057
を持た	-11.4057
火星	-11.4057
バリエーション	-11.4058
窒素	-11.4059
改称	-11.4059
のあった	-11.406
競技場	-11.4061
の減少	-11.4061
アピール	-11.4061
軍艦	-11.4061
明確に	-11.4062
ブライ	-11.4062
に基づいた	-11.4063
決定した	-11.4066
三好	-11.4066
を取得した	-11.4066
ショッピングセンター	-11.4066
年代まで	-11.4067
人質	-11.4067
日向	-11.4068
動物園	-11.407
するようになり	-11.407
生前	-11.4071
評論	-11.4071
販売している	-11.4071
まっていた	-11.4071
十三	-11.4072
1200	-11.4072
ドス	-11.4073
隊の	-11.4074
収穫	-11.4074
が与えられた	-11.4075
発揮	-11.4076
トフ	-11.4077
トは	-11.4077
ラーズ	-11.4078
エッセイ	-11.4079
酷	-11.408
が建設された	-11.408
と思った	-11.408
決着	-11.408
戦目	-11.408
ade	-11.4082
込まれる	-11.4084
bd	-11.4084
燃え	-11.4085
正統	-11.4086
運ばれ	-11.4086
位を獲得	-11.4087
後述する	-11.4089
わずかに	-11.4089
東西に	-11.409
検事	-11.409
ッセ	-11.4091
やかな	-11.4094
増設	-11.4094
対象となる	-11.4094
sco	-11.4095
あお	-11.4097
文化的	-11.4097
を乗せ	-11.4097
ムラ	-11.4099
を移し	-11.41
陰謀	-11.41
逸話	-11.4101
に来た	-11.4103
bit	-11.4103
座標	-11.4103
関係の	-11.4104
ロンドンの	-11.4105
の小説	-11.4106
ヒューストン	-11.4107
領有	-11.4107
の保護	-11.4107
好調	-11.4107
た場合	-11.4107
エンジニア	-11.4107
不利	-11.411
イギリスで	-11.4112
フランス人	-11.4113
法務	-11.4113
これにより	-11.4114
の中の	-11.4115
実務	-11.4115
帽子	-11.4115
行なわれ	-11.4115
属の	-11.4116
ight	-11.4117
枕	-11.4118
に変化	-11.4119
超人	-11.4121
するようになる	-11.4122
考えられる	-11.4123
del	-11.4124
なき	-11.4124
島式ホーム	-11.4125
を提供している	-11.4125
線型	-11.4126
川越	-11.4127
阿波	-11.4128
阻害	-11.4128
▁のちに	-11.4129
遺伝	-11.4129
本格	-11.4131
チーフ	-11.4131
スペクトル	-11.4131
java	-11.4132
足利義	-11.4132
以外で	-11.4132
が採用された	-11.4133
!!』	-11.4135
に出演し	-11.4136
小路	-11.4136
いか	-11.4136
サロン	-11.4138
を強め	-11.4139
カテゴリー	-11.4139
弁護	-11.414
戯曲	-11.414
ug	-11.414
デトロイト	-11.4141
フェー	-11.4141
cap	-11.4142
ning	-11.4143
を命じた	-11.4143
金融機関	-11.4144
に完成した	-11.4147
値は	-11.4149
豊富	-11.4149
名声	-11.415
のほうが	-11.4151
の顔	-11.4152
意義	-11.4153
の呼称	-11.4154
適切	-11.4155
せない	-11.4155
生きる	-11.4155
汚	-11.4156
製薬	-11.4157
大王	-11.4157
当番組	-11.4157
タイミング	-11.4157
として初めて	-11.4158
引き分け	-11.4159
貯	-11.4159
▁この際	-11.4159
san	-11.4159
隣の	-11.4162
主席	-11.4163
魚類	-11.4164
武力	-11.4164
ial	-11.4164
挨拶	-11.4166
者数	-11.4166
視察	-11.4167
オリックス	-11.4168
一般的	-11.4168
盛んに	-11.4169
vel	-11.417
地理学	-11.417
江戸幕府	-11.4171
海兵隊	-11.4172
っぽ	-11.4172
人間が	-11.4172
盾	-11.4173
曰く	-11.4173
平安	-11.4174
のとき	-11.4175
に終わる	-11.4175
解明	-11.4176
は以下の通りである	-11.4176
曲目	-11.4177
bar	-11.4179
年以来	-11.4179
つけられ	-11.4181
air	-11.4182
レバー	-11.4183
が形成され	-11.4184
の製作	-11.4189
ろく	-11.4191
par	-11.4192
敗れ	-11.4192
子爵	-11.4193
ザイ	-11.4194
絹	-11.4194
バージニア	-11.4194
勢力を	-11.4195
に従事した	-11.4196
管内	-11.4196
ポスター	-11.4198
で開催	-11.4199
ばし	-11.4202
og	-11.4203
パレスチナ	-11.4203
胴	-11.4206
のではないかと	-11.4206
キリスト教徒	-11.4206
させようと	-11.4207
コッ	-11.4208
に関する法律	-11.4208
化して	-11.4209
公開され	-11.4209
学んだ	-11.4211
ステル	-11.4212
らに	-11.4212
凡	-11.4213
左派	-11.4215
に陥った	-11.4216
日活	-11.4217
▁ジョン	-11.4217
芦	-11.4218
製作所	-11.4219
ボイス	-11.4219
hol	-11.422
東京市	-11.422
乗り換え	-11.422
を構え	-11.422
一時は	-11.4222
のいずれか	-11.4223
を装備し	-11.4224
の管轄	-11.4225
学区	-11.4225
廟	-11.4226
偉大な	-11.4226
敗で	-11.4227
半数	-11.4227
藤井	-11.4228
秩父	-11.4228
教育委員会	-11.423
bbc	-11.423
部隊を	-11.4233
が追加された	-11.4234
nor	-11.4235
集積	-11.4236
クリーム	-11.4236
tur	-11.4237
整え	-11.4237
ガソリン	-11.4237
の著書	-11.4238
の撮影	-11.4238
日本の俳優	-11.4238
就役	-11.4238
来て	-11.4239
1863	-11.424
攻撃を	-11.4241
歳未満	-11.4242
役に	-11.4244
迎撃	-11.4245
リアス	-11.4246
が必要となる	-11.4246
右手	-11.4249
ローレンス	-11.4251
アメリカ陸軍	-11.4251
アーク	-11.4251
昼間	-11.4251
教官	-11.4253
福寺	-11.4253
わり	-11.4253
賠償	-11.4254
オウ	-11.4254
棺	-11.4256
力学	-11.4257
ホイール	-11.4258
人であった	-11.426
ホセ	-11.4261
▁cl	-11.4263
種は	-11.4263
正月	-11.4263
の支持	-11.4264
ヴィッ	-11.4264
前後に	-11.4265
自分で	-11.4265
モラ	-11.4266
が使われる	-11.4267
power	-11.4267
ニク	-11.4267
夫が	-11.4268
敵の	-11.4268
トライ	-11.4268
西村	-11.4269
地上波	-11.4269
再発	-11.427
位だった	-11.4272
0%	-11.4272
打席	-11.4275
らく	-11.4276
月以降	-11.4276
大砲	-11.4277
nic	-11.4277
フェイス	-11.4278
財団法人	-11.4279
international	-11.428
語った	-11.4281
とのこと	-11.4282
に従う	-11.4283
造営	-11.4283
体力	-11.4286
十郎	-11.4287
類の	-11.4288
駿河	-11.4288
デッド	-11.429
見事	-11.429
双子	-11.4292
▁sh	-11.4293
と言われた	-11.4294
の写真	-11.4295
首を	-11.4297
田川	-11.4298
滞	-11.4299
述べた	-11.43
を食べ	-11.43
代当主	-11.43
危惧	-11.43
現金	-11.4301
丹波	-11.4301
商船	-11.4301
遭遇	-11.4301
モデルは	-11.4302
陣地	-11.4307
の時点で	-11.4307
付けられている	-11.4308
などによって	-11.4308
▁駅番号は	-11.431
北端	-11.4314
南北戦争	-11.4315
変え	-11.4316
を支持する	-11.4317
を変える	-11.4317
が実施された	-11.4318
50%	-11.4318
wwe	-11.4319
置換	-11.4319
カタルーニャ	-11.4319
生没年不詳	-11.4319
ビジョン	-11.4319
グア	-11.432
調教師	-11.432
慰	-11.4321
地理	-11.4321
@	-11.4321
寛文	-11.4322
決まり	-11.4322
社会人	-11.4323
東大	-11.4323
体内	-11.4324
宇治	-11.4324
の間には	-11.4325
{	-11.4326
まき	-11.4326
歓	-11.4328
んでおり	-11.4329
を必要とする	-11.4329
アメ	-11.433
果て	-11.4331
讃	-11.4331
住民は	-11.4332
の強化	-11.4332
あか	-11.4332
年金	-11.4333
皿	-11.4333
750	-11.4334
に進む	-11.4338
合流する	-11.4338
仲介	-11.4339
家畜	-11.434
毅	-11.434
想い	-11.4343
状況を	-11.4345
十一	-11.4345
川流域	-11.4345
短期	-11.4345
ウラン	-11.4346
デザインは	-11.4347
取り扱い	-11.4348
停	-11.4348
ナポリ	-11.4348
という説	-11.4349
通し	-11.4349
ノット	-11.435
シラ	-11.4351
例である	-11.4351
▁そのような	-11.4351
リット	-11.4353
働いて	-11.4353
を紹介する	-11.4354
前後の	-11.4354
sun	-11.4356
ヘッ	-11.4356
メカ	-11.4356
シマ	-11.4358
ホス	-11.4359
枠で	-11.436
プラスチック	-11.4361
小田	-11.4362
を組み合わせた	-11.4362
中型	-11.4363
我が	-11.4363
全体が	-11.4365
州都	-11.4366
и	-11.4366
旋回	-11.4368
は彼の	-11.437
後援	-11.437
転向	-11.4371
が一般的である	-11.4371
クサ	-11.4372
婚姻	-11.4373
の構成	-11.4374
ホリ	-11.4375
に似ている	-11.4375
駅周辺	-11.4376
労働党	-11.4377
横山	-11.4377
口に	-11.4378
−	-11.438
近接	-11.438
gh	-11.4381
マンハッタン	-11.4382
聖職者	-11.4382
アルバ	-11.4383
出来なかった	-11.4386
先祖	-11.4388
柴田	-11.4388
名人	-11.439
退学	-11.4392
一揆	-11.4392
牧野	-11.4394
てくれた	-11.4395
世界中の	-11.4395
1931	-11.4398
▁ra	-11.4398
に応じた	-11.4399
記念碑	-11.4399
出向	-11.4399
ことが判明	-11.4406
アカデミー賞	-11.4406
っていく	-11.4407
同誌	-11.4408
は常に	-11.441
適合	-11.441
リョ	-11.4411
を買い	-11.4411
んです	-11.4411
ハンス	-11.4411
合わせる	-11.4412
量を	-11.4412
予定であったが	-11.4413
方を	-11.4416
腐	-11.4416
マーケティング	-11.4418
賞賛	-11.4418
末に	-11.442
数千	-11.4421
近年では	-11.4422
▁その他の	-11.4423
ったが	-11.4423
クシ	-11.4423
ルノー	-11.4425
みん	-11.4425
八戸	-11.4425
ドキュメンタリー	-11.4425
小型の	-11.4425
南区	-11.4426
を加える	-11.4428
テリ	-11.4429
太夫	-11.4429
腫瘍	-11.443
聡	-11.443
コンピューター	-11.4431
トミー	-11.4431
女の子	-11.4433
の演奏	-11.4433
苑	-11.4434
特攻	-11.4436
王室	-11.4436
学院大学	-11.4438
▁主人公	-11.4442
▁一部の	-11.4442
去り	-11.4443
▁1922	-11.4445
エンターテインメント	-11.4446
辞典	-11.4447
キラ	-11.4451
以外では	-11.4451
村山	-11.4451
▁si	-11.4452
を担当している	-11.4453
uk	-11.4453
監督に就任	-11.4454
幡	-11.4454
地盤	-11.4454
ビートルズ	-11.4456
少なかった	-11.4457
耶	-11.4458
暑	-11.4458
ネズミ	-11.4458
股	-11.4458
を巻き	-11.4458
討	-11.4459
最高の	-11.4459
縄	-11.4459
かえ	-11.4459
フランシス	-11.4463
を浴び	-11.4464
減少し	-11.4465
位置に	-11.4466
ファイア	-11.4468
アジ	-11.447
アルバイト	-11.4473
ペルシア	-11.4473
軽減	-11.4476
クラフト	-11.4476
▁別名	-11.4478
ブール	-11.4478
定められている	-11.4479
るような	-11.4481
スリ	-11.4482
シチリア	-11.4482
関係が	-11.4483
基部	-11.4483
かぶ	-11.4484
藤沢	-11.4484
jra	-11.4485
放送していた	-11.4485
学び	-11.4485
従軍	-11.4485
育て	-11.4485
安倍	-11.4485
指標	-11.4486
されるなど	-11.4487
代官	-11.4487
も多かった	-11.4488
私の	-11.4489
断絶	-11.449
してくる	-11.4491
飲食店	-11.4492
連邦政府	-11.4492
出入り	-11.4493
4,000	-11.4494
させるため	-11.4494
対岸	-11.4495
全集	-11.4496
ロジャー	-11.4497
を回避	-11.4497
に留まった	-11.4499
に関連する	-11.4499
追撃	-11.45
ban	-11.4501
ple	-11.4501
南端	-11.4502
送った	-11.4502
樹木	-11.4504
演奏会	-11.4504
計画を	-11.4507
レナ	-11.4509
nasa	-11.4509
合金	-11.4512
錯	-11.4512
アルファベット	-11.4513
オーディオ	-11.4513
働く	-11.4513
郡区	-11.4514
十六	-11.4515
属性	-11.4519
飲	-11.4519
の一部として	-11.452
í	-11.4522
に所属している	-11.4522
、1936	-11.4523
海軍の	-11.4523
どり	-11.4525
獅子	-11.4525
挿絵	-11.4527
国会議員	-11.4528
みなみ	-11.4529
郡にあった村	-11.453
ソリ	-11.453
永久	-11.4531
賭け	-11.4531
を建設する	-11.4531
換	-11.4534
割れ	-11.4534
を使用	-11.4535
位置付け	-11.4535
入会	-11.4536
ところを	-11.4536
けど	-11.4536
確認できる	-11.4537
ミステリー	-11.4537
ov	-11.4538
パレード	-11.4539
サッカークラブ	-11.454
暴動	-11.4541
つけられた	-11.4543
申し	-11.4545
尖	-11.4546
神道	-11.4546
リーグ優勝	-11.4547
国体	-11.4547
sil	-11.4548
ていたこと	-11.4549
▁1921	-11.4549
サンディエゴ	-11.4549
飛ば	-11.4549
定義される	-11.4549
越し	-11.455
1928	-11.4551
堰	-11.4551
▁米国	-11.4552
形式の	-11.4552
ヨウ	-11.4552
ハリス	-11.4553
小泉	-11.4559
府中	-11.4559
犯行	-11.4559
ったもの	-11.4561
まとめて	-11.4562
単位で	-11.4563
没収	-11.4564
を開き	-11.4564
カウント	-11.4565
貸し	-11.4567
中尉	-11.4567
を上げる	-11.4567
親族	-11.4567
以降も	-11.4568
観光地	-11.4568
離れて	-11.4569
監修	-11.4569
北極	-11.4569
が発足	-11.4569
旧姓	-11.4572
尋ね	-11.4573
判定負け	-11.4576
のタイトルで	-11.4577
豊橋	-11.4578
を加えて	-11.4579
があれば	-11.458
並び	-11.4581
こととなり	-11.4581
混ぜ	-11.4582
▁1917	-11.4583
蕭	-11.4584
ヤマハ	-11.4585
black	-11.4585
が図られ	-11.4585
が進む	-11.4585
ムル	-11.4586
紹介された	-11.4586
として活躍した	-11.4587
薫	-11.4587
影響を与え	-11.4588
であったという	-11.4588
を取り入れ	-11.4589
両者の	-11.4589
免除	-11.459
儒	-11.459
条項	-11.459
威力	-11.459
万人の	-11.4591
似ている	-11.4591
行える	-11.4592
0°	-11.4592
熊谷	-11.4593
得られた	-11.4593
特権	-11.4593
たれ	-11.4594
▁イ	-11.4594
ブロードウェイ	-11.4594
回る	-11.4595
]]	-11.4596
は極めて	-11.4596
渕	-11.4596
借金	-11.4597
薩摩	-11.46
デリー	-11.46
取れ	-11.4601
▁たか	-11.4603
[[	-11.4603
紀伊	-11.4603
呼ぶ	-11.4604
川村	-11.4605
を対象とした	-11.4606
が登場した	-11.4606
探検	-11.4608
役として	-11.4609
は以下のとおり	-11.4609
コモ	-11.4611
に属していた	-11.4611
を選ぶ	-11.4611
ことはなく	-11.4613
として知られ	-11.4613
バッテリー	-11.4613
ウィーク	-11.4614
プラハ	-11.4614
を記念して	-11.4614
水野	-11.4614
の子会社	-11.4615
お笑い	-11.4615
条第	-11.4617
高速バス	-11.4617
必要があった	-11.4617
一人で	-11.4619
フィッシュ	-11.462
1867	-11.4621
遂行	-11.4621
優勝者	-11.4621
タマ	-11.4623
産駒	-11.4623
分ける	-11.4624
を支援する	-11.4625
掴	-11.4625
を送る	-11.4626
マジ	-11.4626
出家	-11.4627
改組	-11.463
等級	-11.463
000	-11.4631
大友	-11.4631
高齢者	-11.4631
ツキ	-11.4631
の多く	-11.4631
を設置する	-11.4633
僧侶	-11.4633
hen	-11.4633
回し	-11.4633
ユーザ	-11.4634
宗家	-11.4634
ome	-11.4634
国旗	-11.4634
md	-11.4637
rac	-11.4639
に隣接する	-11.464
一面	-11.464
であったことから	-11.4641
放置	-11.4642
総数	-11.4643
シェン	-11.4643
を支持し	-11.4644
を主張し	-11.4644
を行なった	-11.4645
完了した	-11.4645
を通過する	-11.4645
コリ	-11.4646
除外	-11.4647
機動戦士ガンダム	-11.4647
正室	-11.4647
本大会	-11.4648
山町	-11.4649
▁引退後は	-11.4649
志向	-11.465
が完成した	-11.465
は少なく	-11.4652
鉢	-11.4652
に昇進	-11.4653
広範囲	-11.4654
冷戦	-11.4655
幼少期	-11.4656
ささ	-11.4656
控訴	-11.4657
}	-11.4657
公布	-11.4658
1861	-11.4658
棋	-11.4659
ツイン	-11.4659
写真家	-11.4661
euro	-11.4662
例は	-11.4663
その名	-11.4663
つつあった	-11.4665
実用化	-11.4665
新羅	-11.4667
を進めた	-11.467
牌	-11.4671
コリン	-11.4673
大地	-11.4674
東海道	-11.4675
職を	-11.4676
期限付き移籍	-11.4676
東京都立	-11.4677
休養	-11.4678
フォックス	-11.4679
小沢	-11.4681
焼失	-11.4683
を直接	-11.4683
博覧会	-11.4683
ロードレース	-11.4684
翌年には	-11.4685
漫才	-11.4686
アベニュー	-11.4691
イザ	-11.4691
却	-11.4691
の物語	-11.4693
イラストレーター	-11.4693
名前を	-11.4694
考える	-11.4694
年代半ば	-11.4695
に仕えた	-11.4696
欧州連合	-11.4697
たものである	-11.4698
スケジュール	-11.4698
入る	-11.4698
につながる	-11.4699
天才	-11.47
木製	-11.47
男が	-11.4701
の要請	-11.4702
文学者	-11.4702
を捨て	-11.4702
ヘッドコーチ	-11.4703
液晶	-11.4703
空手	-11.4703
採取	-11.4705
兵庫	-11.4705
シール	-11.4705
▁ハ	-11.4708
王は	-11.4709
伊予	-11.4709
正しく	-11.471
▁両	-11.4711
ランス	-11.4711
市内に	-11.4712
漆	-11.4713
最高速度	-11.4714
遡	-11.4715
宴	-11.4716
ぎり	-11.4717
抄	-11.4717
ぞく	-11.472
防空	-11.472
高額	-11.4721
リフト	-11.4721
支配下	-11.4721
擁立	-11.4722
誘い	-11.4723
連装	-11.4724
高野	-11.4725
硬貨	-11.4725
で発生した	-11.4725
ws	-11.4727
ハロ	-11.4728
改定	-11.4728
朴	-11.473
存在しない	-11.473
アビ	-11.4731
重点	-11.4731
’	-11.4732
書かれ	-11.4733
述べ	-11.4733
宗教的	-11.4736
嘉永	-11.4737
刻まれ	-11.4737
、1939	-11.4738
上限	-11.4738
後日	-11.4739
書物	-11.4741
読書	-11.4741
に出て	-11.4742
一種の	-11.4743
特異	-11.4743
▁school	-11.4743
エコ	-11.4744
設置され	-11.4745
クマ	-11.4746
じゃない	-11.4747
翌年に	-11.4748
塵	-11.4749
除く	-11.4749
多目的	-11.475
1,2	-11.475
ルートヴィヒ	-11.4752
インディーズ	-11.4752
鎌	-11.4753
ケープ	-11.4755
不安定	-11.4756
分泌	-11.4759
不動	-11.4759
で開催される	-11.4761
を手に	-11.4761
と評している	-11.4763
が好き	-11.4763
学区は以下の通りとなる	-11.4764
通知	-11.4764
能力を	-11.4764
排水	-11.4765
慢性	-11.4769
東山	-11.477
さが	-11.4771
西端	-11.4771
甚	-11.4771
月上旬	-11.4771
年に発表した	-11.4772
日本国	-11.4772
オリジナルの	-11.4772
内装	-11.4775
岐	-11.4776
が成立し	-11.4778
nato	-11.4778
難しく	-11.4779
水田	-11.478
ヶ丘	-11.4782
テッド	-11.4782
蝶	-11.4786
伝統的に	-11.4787
他国	-11.4788
築かれ	-11.4789
電撃	-11.479
rb	-11.479
多くの場合	-11.4791
本拠	-11.4791
▁アン	-11.4792
奪三振	-11.4793
しまい	-11.4793
ä	-11.4793
とも呼ばれ	-11.4794
いちらん	-11.4794
センス	-11.4795
課税	-11.4796
105	-11.4798
バレ	-11.4799
リナ	-11.4799
ざわ	-11.4801
シンガー	-11.4801
成熟	-11.4802
虹	-11.4803
モーニング	-11.4805
▁1914	-11.4806
凶	-11.4806
ざん	-11.4806
停留場	-11.4808
娯楽	-11.4808
ひょう	-11.4808
噴	-11.4809
▁同日	-11.4809
の観点から	-11.481
フォーミュラ	-11.481
年度に	-11.4812
逃走	-11.4812
る形で	-11.4813
now	-11.4814
エンジンの	-11.4815
負傷した	-11.4815
▁もし	-11.4816
所属する	-11.4817
ez	-11.4819
ことが明らか	-11.4821
カルト	-11.4822
始まって	-11.4824
麻雀	-11.4825
ロワ	-11.4826
立川	-11.4826
晶	-11.4827
、1937	-11.4827
ムーア	-11.4828
1865	-11.4829
ていき	-11.4829
近年は	-11.4833
野外	-11.4833
麻薬	-11.4834
ニコラ	-11.4835
処置	-11.4836
カシ	-11.4836
の一角	-11.4837
社内	-11.4838
遠藤	-11.4839
武家	-11.4839
ホームページ	-11.484
借り	-11.484
がかかる	-11.484
スワ	-11.4841
試合に出場した	-11.4842
▁ロシア	-11.4845
セルフ	-11.4845
年代にかけて	-11.4845
ウッ	-11.4849
ーブ	-11.4853
あた	-11.4853
ステレオ	-11.4854
シリ	-11.4855
自由主義	-11.4856
家庭用	-11.4856
に在籍	-11.4857
に分けられる	-11.4857
運送	-11.4859
田辺	-11.4859
これまでに	-11.486
監査	-11.4864
シュル	-11.4864
伝え	-11.4865
メト	-11.4866
ニーズ	-11.4866
lc	-11.4867
109	-11.4868
骨格	-11.4868
人目の	-11.4869
解説者	-11.4869
背負	-11.487
こなし	-11.4872
王女	-11.4873
名門	-11.4874
▁よって	-11.4875
国際大会	-11.4875
整備された	-11.4877
が誕生した	-11.4877
ポケット	-11.4878
東端	-11.4878
踏切	-11.4878
ino	-11.4879
の合計	-11.4881
フラッシュ	-11.4882
部を	-11.4884
ッポ	-11.4884
趣旨	-11.4885
ウィング	-11.4886
認められる	-11.4887
tsu	-11.4887
ことについて	-11.4888
有人	-11.489
を集めて	-11.489
key	-11.489
ata	-11.4892
和泉	-11.4893
を担当し	-11.4894
外来	-11.4894
メンバーとして	-11.4895
いったん	-11.4895
中央に	-11.4896
サール	-11.4896
リブ	-11.4898
これ以降	-11.4899
ロシア帝国	-11.49
表題曲	-11.49
ユリ	-11.49
1929	-11.4901
特色	-11.4902
疎	-11.4903
同局	-11.4903
潔	-11.4904
zi	-11.4904
傾向にある	-11.4905
エイト	-11.4905
team	-11.4906
呼んで	-11.4906
アルミニウム	-11.4907
経済学者	-11.4909
を必要とし	-11.4909
仙台市	-11.4911
放映された	-11.4913
容疑で	-11.4913
顔を	-11.4914
を認めた	-11.4915
公務員	-11.4918
を設置した	-11.4918
もらい	-11.4918
等しい	-11.4918
祭神	-11.4919
一貫	-11.4919
内陸	-11.492
1,0	-11.4922
に属している	-11.4923
に所属した	-11.4923
変わらない	-11.4924
ランキングで	-11.4925
進撃	-11.4926
キッド	-11.4927
オルガン	-11.4927
とよ	-11.4927
尊敬	-11.4928
ヘビー級王座	-11.4929
教諭	-11.493
神奈川県横浜市	-11.493
ライブラリ	-11.493
マーシャル	-11.4931
hor	-11.4931
▁windows	-11.4934
田原	-11.4936
ale	-11.4937
井戸	-11.4938
一次	-11.4941
にも参加	-11.4943
にしか	-11.4943
スラヴ	-11.4943
に送り	-11.4943
支払う	-11.4944
cb	-11.4946
キャッシュ	-11.4946
含め	-11.4946
にとどまった	-11.4947
することがある	-11.4947
市議会	-11.4948
組み立て	-11.4948
▁fe	-11.4949
撰	-11.4951
大社	-11.4952
を備える	-11.4953
外れ	-11.4954
ッピング	-11.4954
があったため	-11.4955
ソナタ	-11.4956
難易度	-11.4959
沿	-11.496
日付の	-11.4961
に過ぎない	-11.4961
アシュ	-11.4962
上げて	-11.4964
ニコライ	-11.4964
クリーク	-11.4964
ヤンキース	-11.4964
極東	-11.4964
抽出	-11.4965
されることが多い	-11.4966
より発売された	-11.4966
括弧	-11.4966
ざい	-11.4968
天国	-11.4968
実際	-11.4969
累計	-11.4969
巡回	-11.497
明治維新	-11.4972
はじめて	-11.4972
ブレー	-11.4972
は本作	-11.4972
ギリ	-11.4974
月の第	-11.4974
反面	-11.4974
楽天	-11.4975
学部教授	-11.4977
透	-11.4977
樹脂	-11.4979
▁この結果	-11.4979
水面	-11.4979
山内	-11.498
菩薩	-11.4981
出血	-11.4983
アーキテクチャ	-11.4984
を育て	-11.4985
を固め	-11.4986
戻す	-11.4986
ニウム	-11.4986
勾配	-11.4987
ビルボード	-11.4987
福岡市	-11.4987
内閣総理大臣	-11.4989
ヤマト	-11.499
じた	-11.4994
tin	-11.4994
岡本	-11.4995
rus	-11.4997
騒	-11.5
八王子	-11.5001
入国	-11.5001
られなかった	-11.5002
煙突	-11.5002
招	-11.5003
最近では	-11.5006
津田	-11.5009
枚目のアルバム	-11.5009
ブレン	-11.501
、1938	-11.501
泣	-11.5011
国営	-11.5013
喜び	-11.5015
鰭	-11.5016
に分布する	-11.5018
が知られている	-11.5018
特番	-11.5018
初期に	-11.5019
採用され	-11.502
ami	-11.5021
などといった	-11.5021
コーポレーション	-11.5021
博士課程	-11.5023
レッジ	-11.5023
報告されている	-11.5024
常務	-11.5024
▁最終	-11.5024
とも言われる	-11.5024
上では	-11.5025
信徒	-11.5025
▁逆に	-11.5026
が設けられた	-11.5027
と主張し	-11.5028
ライド	-11.5028
に強い	-11.5029
換装	-11.503
ツァー	-11.5031
高等学校を経て	-11.5031
を始めとする	-11.5032
鑑定	-11.5032
アルト	-11.5032
cas	-11.5032
を収録	-11.5033
を多数	-11.5034
ヴィッチ	-11.5034
ゴジラ	-11.5034
使われる	-11.5034
日本初の	-11.5035
突撃	-11.5035
築城	-11.5036
アレン	-11.5037
友達	-11.5038
_4	-11.5038
移設	-11.5038
向かい	-11.5039
大夫	-11.5039
過剰	-11.504
に出た	-11.504
ham	-11.504
▁近年では	-11.5041
で死去した	-11.5042
撤回	-11.5043
歩く	-11.5044
オットー	-11.5045
▁世界	-11.5046
歌謡	-11.5048
藻	-11.505
シーズンから	-11.505
ロップ	-11.505
深さ	-11.5051
役人	-11.5051
体が	-11.5051
直営	-11.5052
▁ホーム	-11.5052
センサー	-11.5053
付きの	-11.5053
難しい	-11.5054
ソ連軍	-11.5056
熙	-11.5056
主翼	-11.5057
州立大学	-11.5057
癒	-11.5057
メンバーの	-11.5058
の有無	-11.5059
に拠れば	-11.5059
が原因で	-11.506
を通り	-11.506
投票で	-11.506
西鉄	-11.506
履	-11.506
ローマ帝国	-11.5061
寸	-11.5064
圓	-11.5069
代将軍	-11.507
造成	-11.507
狙い	-11.5071
主砲	-11.5071
▁ka	-11.5072
りつ	-11.5072
1866	-11.5072
さつ	-11.5073
立憲	-11.5073
hl	-11.5073
大統領は	-11.5074
が導入され	-11.5074
活動を開始	-11.5075
出会い	-11.5077
みた	-11.5078
芸能界	-11.5079
ura	-11.508
ky	-11.5081
タリー	-11.5082
欧	-11.5082
ow	-11.5083
ばれ	-11.5083
大半が	-11.5089
出身の元	-11.5089
宝暦	-11.509
好評	-11.509
○○	-11.5091
者もいる	-11.5092
かなりの	-11.5092
誘拐	-11.5094
その際に	-11.5094
単体	-11.5096
リリースした	-11.5096
音楽祭	-11.5096
射程	-11.5098
が製造	-11.5099
住み	-11.5104
加盟国	-11.5105
用いた	-11.5106
アルファ	-11.5106
mix	-11.5106
元気	-11.5106
宣教師	-11.5106
インストール	-11.5108
舞踊	-11.5108
を制し	-11.5108
に分類され	-11.511
チェンジ	-11.511
と戦う	-11.5111
車両が	-11.5111
片側	-11.5111
宰相	-11.5113
替わり	-11.5113
リフ	-11.5113
20%	-11.5115
カメ	-11.5115
酒井	-11.5116
アンドリュー	-11.5116
予定だった	-11.5118
ることもある	-11.5119
の出演	-11.512
同大学	-11.512
種族	-11.512
発祥	-11.5122
大都市	-11.5124
を書く	-11.5124
野町	-11.5124
めん	-11.5126
慮	-11.5126
この時期	-11.5128
異なった	-11.5128
真空	-11.5129
に行われる	-11.5133
予言	-11.5134
それ以外	-11.5134
レンタル移籍	-11.5135
サスペンション	-11.5137
をめぐって	-11.5137
無料で	-11.5137
発見され	-11.5138
を完成させ	-11.5138
国民の	-11.5139
決まる	-11.5139
落とす	-11.5141
十八	-11.5142
レベルの	-11.5143
クィ	-11.5144
圧倒的	-11.5145
テレビシリーズ	-11.5147
出航	-11.5147
されたものである	-11.5148
らを	-11.5149
ライト級	-11.515
池袋	-11.515
炭鉱	-11.5151
本項	-11.5151
産出	-11.5152
に昇格した	-11.5153
大蔵	-11.5153
流し	-11.5153
に発生した	-11.5154
の成立	-11.5155
▁血液型	-11.5155
ラッセル	-11.5156
エアロ	-11.5157
ドナルド	-11.5157
にならない	-11.5158
郵政	-11.5158
ことを示す	-11.5159
切手	-11.516
▁母は	-11.516
愚	-11.516
祝日	-11.5161
への参加	-11.5162
の三男	-11.5163
発展し	-11.5164
が搭載され	-11.5164
ビオ	-11.5165
に反対する	-11.5166
にその	-11.5167
起こした	-11.5167
できるようになった	-11.5168
揃え	-11.5168
負けを喫し	-11.5169
ball	-11.517
あらかじめ	-11.517
基幹	-11.5172
ベロ	-11.5176
を読み	-11.5177
翻	-11.5179
破損	-11.5179
を製造	-11.5179
痛み	-11.518
交差	-11.518
虐待	-11.5181
との間の	-11.5181
曹操	-11.5181
にかかる	-11.5181
出羽	-11.5182
待機	-11.5183
固体	-11.5184
▁po	-11.5185
show	-11.5186
それ以上	-11.5187
バンタム級	-11.5188
の育成	-11.5188
で行われ	-11.5189
撃ち	-11.5191
峯	-11.5191
取り扱う	-11.5191
ライアン	-11.5191
位置づけられ	-11.5192
割り当てられ	-11.5193
されることがある	-11.5194
▁初	-11.5194
の性質	-11.5194
遺族	-11.5195
をかける	-11.5196
‐	-11.5196
に分け	-11.5196
元来	-11.5197
日本の実業家	-11.5197
高性能	-11.5198
スプリング	-11.5199
が広く	-11.5199
ものとなっている	-11.5199
全体を	-11.52
マサチューセッツ州	-11.52
排気	-11.5201
シャトル	-11.5201
ストレス	-11.5201
触媒	-11.5201
フォーラム	-11.5201
イオ	-11.5203
を通って	-11.5205
狩	-11.5205
大関	-11.5206
爆破	-11.5206
こい	-11.5207
を導入した	-11.5207
うこと	-11.5207
ダラ	-11.5208
将来の	-11.5208
ラインナップ	-11.5209
当事者	-11.5211
赤坂	-11.5214
採用されている	-11.5214
▁字は	-11.5216
ボーイズ	-11.5217
桑	-11.5217
と同じように	-11.5218
夜の	-11.522
下野	-11.522
カウンター	-11.5221
値を	-11.5223
隙	-11.5223
スーツ	-11.5225
フロア	-11.5226
随	-11.5226
が良い	-11.5226
center	-11.5226
左岸	-11.5227
発車	-11.5227
湾岸	-11.5227
ダウ	-11.5227
japan	-11.5227
に代表される	-11.5228
総長	-11.5229
ゲリラ	-11.5229
ることなく	-11.523
党員	-11.523
年に設立された	-11.5231
によるものである	-11.5231
イソ	-11.5232
爾	-11.5232
成長した	-11.5232
氏と	-11.5232
を支える	-11.5233
で生まれ	-11.5234
真っ	-11.5234
選帝侯	-11.5237
タバコ	-11.5237
診療	-11.5238
ライオンズ	-11.5238
の名は	-11.5239
描	-11.5241
トーン	-11.5242
以南	-11.5243
ics	-11.5243
歩き	-11.5244
記録されている	-11.5247
などによる	-11.525
諸侯	-11.5251
採択	-11.5251
センチ	-11.5252
を背景に	-11.5253
示された	-11.5254
鉄道は	-11.5254
歩兵第	-11.5255
汎用	-11.5255
eng	-11.5255
位を記録	-11.5259
追悼	-11.5263
型式	-11.5263
入賞	-11.5263
聞こえ	-11.5265
に隣接し	-11.5269
の規模	-11.5269
ことに成功した	-11.5269
封鎖	-11.5271
オランダの	-11.5271
アドルフ	-11.5273
年の間	-11.5273
原発	-11.5274
本番組	-11.5275
カニ	-11.5275
ys	-11.5275
摂政	-11.5275
シアトル	-11.5276
意向	-11.5276
接続する	-11.5276
mark	-11.5276
駐在	-11.5277
船が	-11.5283
窯	-11.5283
会派	-11.5284
札幌市	-11.5285
ドラマー	-11.5286
日午後	-11.5286
マネ	-11.5287
苦し	-11.5289
首席	-11.5289
不十分	-11.5289
穀物	-11.5291
愛国	-11.5291
京成	-11.5293
に専念	-11.5293
と推定されている	-11.5293
幌	-11.5296
サッ	-11.5296
路面電車	-11.5296
納め	-11.5296
有力な	-11.5297
を投じ	-11.5297
マナ	-11.5298
ニッポン放送	-11.5299
胞	-11.5299
が実施され	-11.5299
残した	-11.5299
漂	-11.53
sis	-11.53
シリーズでは	-11.5301
生地	-11.5301
mas	-11.5302
アサ	-11.5302
長期間	-11.5302
地である	-11.5304
ことだった	-11.5305
フレデリック	-11.5306
オッ	-11.531
ことはできなかった	-11.5312
ada	-11.5313
ペンシルベニア州	-11.5314
廣	-11.5314
の危機	-11.5314
混雑	-11.5315
を脱	-11.5315
日本国外	-11.5319
マニラ	-11.5321
を採用する	-11.5321
五十	-11.5323
コラ	-11.5324
歓迎	-11.5324
することができた	-11.5325
を発し	-11.5325
出している	-11.5326
イグ	-11.5326
日からは	-11.5326
湘南	-11.5328
ホラー	-11.5328
仕上げ	-11.5329
ドウ	-11.533
を遂げ	-11.533
白石	-11.533
暴走	-11.5332
似た	-11.5333
企	-11.5333
を当て	-11.5333
作られ	-11.5334
を否定し	-11.5334
選択肢	-11.5335
すり	-11.5336
ひがし	-11.5336
暮	-11.5337
ニシ	-11.5339
守り	-11.534
包括	-11.534
市から	-11.534
135	-11.5341
xx	-11.5341
仁親王	-11.5341
じんじゃ	-11.5342
王家	-11.5342
誘致	-11.5343
▁pri	-11.5343
ッラ	-11.5343
聖母	-11.5344
写真を	-11.5344
議会は	-11.5345
講習	-11.5346
途上	-11.5346
たとえ	-11.5348
改宗	-11.5349
ッシ	-11.5349
ナック	-11.5349
喜劇	-11.5349
ペドロ	-11.5351
大輔	-11.5354
金剛	-11.5355
宝塚歌劇団	-11.5355
伊賀	-11.5356
使用していた	-11.5359
落とし	-11.5362
重臣	-11.5362
に見舞われ	-11.5363
混同	-11.5364
マイクロソフト	-11.5365
▁この年は	-11.5366
に行き	-11.5367
not	-11.5367
喰	-11.5368
base	-11.5368
と呼ばれるようになった	-11.5369
撫	-11.5371
内容が	-11.5372
航空隊	-11.5372
に変更され	-11.5374
地上駅	-11.5374
usa	-11.5375
例もある	-11.5375
スクエア	-11.5375
研究開発	-11.5376
に於いて	-11.5376
転落	-11.5377
収束	-11.5377
ぼく	-11.5378
を想定し	-11.538
アルバニア	-11.538
ブラウザ	-11.5383
器具	-11.5386
シリーズは	-11.5387
方面から	-11.5387
▁これに	-11.5387
原子力発電所	-11.5387
的にも	-11.5387
を受け入れ	-11.5389
那須	-11.539
順番	-11.539
大阪府大阪市	-11.5391
の文字	-11.5391
の大半は	-11.5392
模	-11.5393
低減	-11.5393
描く	-11.5393
歴史的な	-11.5395
電磁	-11.5396
ジェイムズ	-11.5397
消化	-11.5398
▁pi	-11.5399
武将	-11.54
活動家	-11.54
構造は	-11.54
指向	-11.54
ホウ	-11.5402
余裕	-11.5402
奇跡	-11.5402
半導体	-11.5402
ふる	-11.5405
をなす	-11.5405
fin	-11.5406
造形	-11.5407
の名称で	-11.5408
位と	-11.5408
が開かれ	-11.5408
を振り	-11.541
に入れ	-11.5411
リントン	-11.5412
凍結	-11.5412
してしまい	-11.5412
霞	-11.5413
アムステルダム	-11.5413
トルク	-11.5413
に進み	-11.5414
はっきり	-11.5415
を行なう	-11.5415
台北	-11.5416
ボスニア	-11.5416
有限会社	-11.5416
揺	-11.5416
本機	-11.5418
都市である	-11.5418
を継ぐ	-11.5418
ぐる	-11.5419
ドレ	-11.5419
精神的	-11.5419
▁今日	-11.542
下関	-11.5421
組成	-11.5421
for	-11.5421
▁1912	-11.5424
高島	-11.5425
亜種	-11.5427
幕下	-11.5427
による日本の漫画作品	-11.5428
震災	-11.5428
ori	-11.5429
明日	-11.5429
遅延	-11.5429
ンゲン	-11.543
部員	-11.543
二代目	-11.5431
実に	-11.5432
融資	-11.5433
沸	-11.5433
行われており	-11.5435
ウイング	-11.5436
転写	-11.5436
セントルイス	-11.5437
を超えて	-11.5438
避	-11.5438
▁真	-11.544
終了後に	-11.5441
ラング	-11.5441
塗り	-11.5441
クライアント	-11.5442
優勢	-11.5442
、1935	-11.5446
に囲まれ	-11.5446
せば	-11.5446
awa	-11.5447
を提供し	-11.5447
八重	-11.5448
ライフル	-11.545
殿堂入り	-11.5451
生育	-11.5451
もたらされ	-11.5451
現在に至る	-11.5452
転送	-11.5452
たった	-11.5454
に留まり	-11.5455
あわせ	-11.5456
と共同で	-11.5457
作られている	-11.5457
にあたった	-11.5457
宝石	-11.5457
bor	-11.5458
傘	-11.5458
病院で	-11.5459
行政区	-11.5461
1850	-11.5463
kt	-11.5463
松浦	-11.5464
の報告	-11.5465
ホーク	-11.5466
決勝では	-11.5467
free	-11.5467
を演じる	-11.5468
樺太	-11.5468
mal	-11.5468
植物の	-11.547
侯爵	-11.5471
を落とし	-11.5471
と違い	-11.5471
などでも	-11.5473
sky	-11.5473
を廃止し	-11.5474
を見つけ	-11.5476
ログ	-11.5477
癖	-11.5478
が導入された	-11.5479
展開する	-11.548
運行している	-11.5481
急性	-11.5481
屋外	-11.5482
酒造	-11.5482
三角形	-11.5482
ヨーゼフ	-11.5482
企業が	-11.5483
ニンテンドー	-11.5483
川が	-11.5484
を完全に	-11.5484
記した	-11.5485
npo	-11.5485
集約	-11.5485
左手	-11.5485
につれ	-11.5485
抽象	-11.5486
プライベート	-11.5486
一宮	-11.5486
京都大学	-11.5486
系譜	-11.5486
最速	-11.5486
普通列車	-11.5487
ひこ	-11.5487
by	-11.5488
お前	-11.5491
寅	-11.5491
的存在	-11.5492
激化	-11.5493
エンジンを	-11.5493
を訪ね	-11.5494
レックス	-11.5494
の始まり	-11.5494
俳句	-11.5494
仕掛け	-11.5494
湿地	-11.5495
兵を	-11.5495
ある日	-11.5496
▁ad	-11.5496
ホーン	-11.5496
、1933	-11.5497
灰色	-11.5499
が進んだ	-11.5499
公使	-11.55
初日	-11.55
ものも	-11.5501
▁白	-11.5501
メリー	-11.5502
ざき	-11.5503
スタイン	-11.5506
閑	-11.5507
450	-11.5507
は当時の	-11.5508
打たれ	-11.5509
三大	-11.5509
拡散	-11.551
造られた	-11.551
募	-11.551
game	-11.5511
ロシア連邦	-11.5511
摂津	-11.5511
社から	-11.5511
を持っており	-11.5512
文久	-11.5513
江戸時代に	-11.5516
ッケ	-11.5517
駄	-11.5518
そく	-11.5519
project	-11.552
、1932	-11.552
ンガ	-11.5521
▁all	-11.5521
感染症	-11.5522
勝った	-11.5523
野球部	-11.5524
チーズ	-11.5525
の主力	-11.5525
▁同じく	-11.5525
普	-11.5527
選出される	-11.5527
プレミア	-11.5527
▁プロ	-11.5528
1925	-11.5528
誰か	-11.5529
押さえ	-11.5529
book	-11.5531
北九州	-11.5531
を考慮し	-11.5531
に行われた	-11.5532
マイアミ	-11.5532
で使用された	-11.5533
を奪取	-11.5533
演算	-11.5534
コーラ	-11.5534
副社長	-11.5535
武道	-11.5536
平原	-11.5538
も多数	-11.5539
小田急	-11.5539
発現	-11.5541
木曜	-11.5542
促	-11.5544
東武	-11.5544
メイド	-11.5545
世界各国	-11.5545
住居表示	-11.5545
を差し	-11.5546
の半分	-11.5547
ニウス	-11.5548
月時点で	-11.5549
plan	-11.5549
を拒否した	-11.555
萬	-11.5552
犬種	-11.5553
に使用された	-11.5555
スタメン	-11.5556
予定されていた	-11.5556
ルネサンス	-11.5557
イギリス人	-11.5557
たところ	-11.5559
しお	-11.556
スロット	-11.5562
白河	-11.5563
中枢	-11.5564
nec	-11.5565
直流	-11.5565
バーデン	-11.5565
徴兵	-11.5566
配属	-11.5567
水産	-11.5567
モントリオール	-11.5568
に就く	-11.5568
担当者	-11.5568
勧	-11.5568
年公開の	-11.5569
ホスト	-11.5569
生体	-11.5571
風俗	-11.5571
コパ	-11.5572
トイ	-11.5572
さなかった	-11.5573
変異	-11.5573
医科大学	-11.5574
対応する	-11.5574
▁nhk	-11.5575
に着手	-11.5576
ピル	-11.5577
の法則	-11.5577
のうちに	-11.5577
四日市	-11.5577
ベネズエラ	-11.5578
アレクサンダー	-11.5578
近縁	-11.5578
梅田	-11.5579
町田	-11.558
夷	-11.5581
嚢	-11.5584
戦果	-11.5584
多様体	-11.5586
を実施し	-11.5588
偉	-11.5589
展覧会	-11.5589
アイヌ	-11.559
吊り	-11.559
ブリン	-11.5591
三田	-11.5592
ビート	-11.5593
従五位下	-11.5594
頁	-11.5594
しら	-11.5594
ティーン	-11.5595
を思い	-11.5596
民放	-11.5596
レック	-11.5596
活躍し	-11.5598
の主題歌	-11.5599
路線が	-11.5599
を得ている	-11.5601
上にある	-11.5601
管理者	-11.5602
ハイブリッド	-11.5602
多項式	-11.5602
拍	-11.5603
ire	-11.5603
互換性	-11.5603
lon	-11.5604
バブル	-11.5604
を飾った	-11.5604
デヴィッド	-11.5605
カタログ	-11.5605
の登場人物	-11.5606
認	-11.5606
に移転した	-11.5606
ゆみ	-11.5609
エチオピア	-11.561
既存	-11.5611
から離れ	-11.5612
破棄	-11.5614
bf	-11.5614
演出家	-11.5614
ってしまった	-11.5615
与え	-11.5615
圧倒的な	-11.5615
を展開する	-11.5615
を通過し	-11.5616
かせる	-11.5616
旋律	-11.5616
巴	-11.5618
尽力	-11.5618
ないよう	-11.5618
あきら	-11.562
魯	-11.5621
けば	-11.5622
に接し	-11.5622
償	-11.5623
6,000	-11.5623
強盗	-11.5623
青色	-11.5623
ろうと	-11.5624
に際しては	-11.5626
▁兄	-11.5626
冬の	-11.5626
説明する	-11.5628
亜科	-11.5628
ニュータウン	-11.5629
乗用車	-11.5629
したことにより	-11.5632
富田	-11.5637
鳥居	-11.5637
歳没	-11.5637
を試みた	-11.5638
することなく	-11.5638
レスラー	-11.5639
方式で	-11.5641
▁ja	-11.5641
世界初の	-11.5642
カンボジア	-11.5642
~	-11.5642
構造物	-11.5644
にのみ	-11.5645
初年度	-11.5645
やる	-11.5646
研究室	-11.5646
する者	-11.5647
解説する	-11.5647
文部省	-11.5647
日本語版	-11.5648
戦時中	-11.5648
ax	-11.5648
kin	-11.5648
尾張	-11.5649
みたい	-11.565
表面に	-11.565
と称して	-11.5651
一度も	-11.5651
オーク	-11.5653
で発売された	-11.5653
始まる	-11.5653
鋳造	-11.5654
クルーズ	-11.5655
ジョニー	-11.5655
エレクトリック	-11.5656
右岸	-11.5657
des	-11.5657
ピク	-11.5657
泳	-11.5658
time	-11.5658
喧嘩	-11.5658
わい	-11.5659
握	-11.566
が発見され	-11.566
幹線	-11.566
駅構内	-11.5661
が原因	-11.5661
シム	-11.5664
本山	-11.5665
日本の漫画家	-11.5665
傾向がある	-11.5665
放った	-11.5666
ash	-11.5666
尚書	-11.5667
と並ぶ	-11.5667
ラテン	-11.5668
引退後	-11.5668
町長	-11.5669
ney	-11.567
ヨシ	-11.567
エーカー	-11.567
任官	-11.5673
源流	-11.5673
ペース	-11.5674
テュ	-11.5674
を実施する	-11.5675
ラテン文字	-11.5675
細かい	-11.568
が使用されている	-11.5682
準々決勝	-11.5682
pal	-11.5683
日本共産党	-11.5683
の大部分は	-11.5684
ケイン	-11.5684
などである	-11.5684
に放送された	-11.5685
警官	-11.5686
セリ	-11.5686
定め	-11.5688
西欧	-11.5689
依然として	-11.5689
蒼	-11.569
古巣	-11.5691
ニックネーム	-11.5691
月曜日	-11.5694
跡地に	-11.5694
育つ	-11.5695
年前の	-11.5695
日本書紀	-11.5696
実体	-11.5696
けて	-11.5696
』・『	-11.5696
場合でも	-11.5696
の間では	-11.5697
oe	-11.5698
万部	-11.5699
▁古代	-11.5699
ヴル	-11.5699
大森	-11.5701
▁【	-11.5702
続行	-11.5702
鋳	-11.5702
スロバキア	-11.5704
藍	-11.5704
安藤	-11.5704
添加	-11.5705
歴史上	-11.5706
失脚	-11.5706
内田	-11.5707
知り合い	-11.5707
捕食	-11.5707
と表記される	-11.5708
倉敷	-11.5709
を開発した	-11.5709
研究センター	-11.571
原爆	-11.5712
疑惑	-11.5712
を断念	-11.5712
取り入れ	-11.5712
副作用	-11.5714
に限り	-11.5715
を選んだ	-11.5716
ッシャー	-11.5716
の指揮下	-11.5716
集結	-11.5717
を仕掛け	-11.5717
負荷	-11.5718
アントニオ	-11.5719
山梨	-11.572
を描き	-11.572
スティー	-11.5721
を結んだ	-11.5722
巡礼	-11.5724
シーズン終了後	-11.5724
たくさん	-11.5725
に任命	-11.5725
記載する	-11.5726
ことが判明した	-11.5726
拠点として	-11.5727
香り	-11.5728
鉄道路線	-11.5728
ria	-11.5729
撮影された	-11.5731
毎日新聞	-11.5731
召集	-11.5732
バグ	-11.5733
ユニフォーム	-11.5734
と異なる	-11.5734
ホルン	-11.5734
知られており	-11.5735
御用	-11.5735
古来	-11.5737
シオン	-11.5739
を受章	-11.574
ければ	-11.574
トキ	-11.574
gal	-11.574
の北側	-11.5741
カルチャー	-11.5741
到	-11.5742
が担当した	-11.5743
を継承した	-11.5744
長時間	-11.5744
釈迦	-11.5744
島町	-11.5745
の支配下	-11.5746
▁以下に	-11.5748
▁1910	-11.5749
された後	-11.5749
輸送船	-11.575
とされており	-11.575
アーツ	-11.5751
に設置されている	-11.5753
められ	-11.5753
グラント	-11.5754
を模した	-11.5755
くなった	-11.5756
die	-11.5756
公開されている	-11.5757
リーフ	-11.5758
痕跡	-11.5758
山麓	-11.5759
塩基	-11.576
アイスランド	-11.5762
堤防	-11.5762
うん	-11.5762
パラメータ	-11.5762
貴族院	-11.5762
にともない	-11.5762
グローブ	-11.5763
を帯び	-11.5763
亡くなる	-11.5763
退官	-11.5765
に至って	-11.5766
嘘	-11.5766
studio	-11.5766
聖人	-11.5768
受け継がれ	-11.5768
債	-11.5769
揺れ	-11.577
hc	-11.5772
者も	-11.5773
ミッ	-11.5773
の指示	-11.5773
にもなった	-11.5775
の必要性	-11.5776
肯定	-11.5777
dan	-11.5777
数回	-11.5777
1848	-11.5777
増殖	-11.5777
▁can	-11.5778
wii	-11.5778
を入れる	-11.5779
トレー	-11.5779
自由な	-11.578
を任され	-11.578
ジョイ	-11.5782
止ま	-11.5782
ようになっていた	-11.5782
115	-11.5783
失敗した	-11.5785
幸せ	-11.5785
記されている	-11.5786
複製	-11.5786
とされるが	-11.5789
mus	-11.579
が入った	-11.5791
警報	-11.5791
が置かれた	-11.5791
火器	-11.5791
踏襲し	-11.5793
人だった	-11.5795
スウェーデンの	-11.5795
即位した	-11.5795
帖	-11.5795
幻想	-11.5796
暴行	-11.5796
一般化	-11.5796
gan	-11.5796
を破壊し	-11.5797
が生まれ	-11.5801
漫画作品	-11.5801
に落ち	-11.5801
親会社	-11.5804
田舎	-11.5805
ケリー	-11.5807
に始まる	-11.5807
のほとんどは	-11.5807
を行わ	-11.5808
気圧	-11.5809
の軍人	-11.581
ケルン	-11.581
叩	-11.5811
見学	-11.5811
を刊行	-11.5812
ben	-11.5812
手段として	-11.5812
局所	-11.5812
イングランドの	-11.5812
を記録する	-11.5813
構え	-11.5813
開発者	-11.5813
レント	-11.5813
要員	-11.5814
病死	-11.5817
円盤	-11.5817
▁近年は	-11.5819
を破って	-11.5819
フェス	-11.5821
誇り	-11.5822
の良い	-11.5822
扶	-11.5822
mv	-11.5822
島田	-11.5822
野球場	-11.5822
イヴ	-11.5823
ビック	-11.5823
法則	-11.5825
はるかに	-11.5825
動向	-11.5825
問い	-11.5825
例がある	-11.5826
在籍した	-11.5827
作成された	-11.5827
中国共産党	-11.5828
歪	-11.5828
厚生労働省	-11.5828
ミックス	-11.5829
積極的な	-11.583
出身地	-11.583
▁第二次世界大戦後	-11.583
に合わせ	-11.5831
格納	-11.5831
委	-11.5832
ハワード	-11.5832
テオ	-11.5832
順調に	-11.5834
平地	-11.5834
小児	-11.5834
どおり	-11.5835
漏れ	-11.5835
参謀長	-11.5835
代表者	-11.5837
学生時代	-11.5837
radio	-11.5838
ゆかり	-11.584
ios	-11.5845
ついて	-11.5846
駐留	-11.5846
試合出場	-11.5846
はわずか	-11.5846
抱え	-11.5848
※	-11.5849
簡単な	-11.5849
▁new	-11.585
南下	-11.585
という意味で	-11.585
設置されている	-11.5851
を守るため	-11.5852
で優勝した	-11.5852
引き受け	-11.5854
戸田	-11.5854
中原	-11.5856
vin	-11.5856
sur	-11.5857
今日では	-11.5857
使用可能	-11.5857
熱心	-11.5859
ワールドシリーズ	-11.586
迎えた	-11.5861
されたり	-11.5861
石原	-11.5863
桓	-11.5863
mhz	-11.5864
主人	-11.5865
出演していた	-11.5866
、1934	-11.5867
故に	-11.5868
たことから	-11.587
麻呂	-11.5871
選挙では	-11.5872
▁it	-11.5873
ぱ	-11.5873
▁col	-11.5873
対潜	-11.5874
目黒	-11.5874
▁父親は	-11.5875
発電機	-11.5876
本堂	-11.5876
と名付けられた	-11.5877
維新	-11.5878
幼虫	-11.5878
クモ	-11.5879
行って	-11.5879
スイスの	-11.588
ルドルフ	-11.5882
遺物	-11.5882
会社が	-11.5882
度目	-11.5884
平定	-11.5884
ゥ	-11.5885
伸びる	-11.5885
イリ	-11.5885
投入された	-11.5886
を終了した	-11.5887
ティウス	-11.5887
を購入し	-11.5887
西区	-11.5887
無償	-11.5888
リッ	-11.589
腹部	-11.589
争う	-11.589
月末に	-11.5891
運行する	-11.5891
と考えられ	-11.5892
されるまで	-11.5892
ヶ月間	-11.5894
クロン	-11.5894
カルロ	-11.5895
グン	-11.5896
うえで	-11.5896
本多	-11.5897
▁元々	-11.5898
川上	-11.5899
スパルタ	-11.5901
かという	-11.5902
退社	-11.5902
経済成長	-11.5903
の軍勢	-11.5903
サンクトペテルブルク	-11.5905
が約	-11.5905
諦め	-11.5906
を行うため	-11.5906
意欲	-11.5907
た際に	-11.5907
東ドイツ	-11.5908
地質	-11.5908
ann	-11.591
遮断	-11.591
新潟市	-11.5912
佐伯	-11.5912
イザー	-11.5912
に襲われ	-11.5913
考えられ	-11.5915
役を	-11.5917
レポート	-11.5917
らによって	-11.592
ヴァルト	-11.5922
通報	-11.5923
破壊され	-11.5924
ceo	-11.5925
ora	-11.5926
ないという	-11.5928
幼い	-11.5929
四つ	-11.593
ができた	-11.5931
年夏に	-11.5932
、“	-11.5932
の末に	-11.5933
親交	-11.5935
世界各地	-11.5935
最盛期	-11.5935
に組み込まれ	-11.5935
正式名称	-11.5937
脂肪	-11.5937
に立った	-11.5937
市場で	-11.5938
回線	-11.5938
時まで	-11.5939
進路	-11.594
無所属	-11.594
障	-11.5942
荒廃	-11.5942
塩化	-11.5945
水が	-11.5947
を担当していた	-11.5948
に抜擢され	-11.5948
普遍	-11.5948
!!」	-11.595
シュト	-11.595
インテル	-11.5951
マーン	-11.5951
厚生	-11.5954
テア	-11.5954
ミドル級	-11.5957
マド	-11.5958
▁しかしこの	-11.5958
日本シリーズ	-11.5961
プロトコル	-11.5962
新曲	-11.5964
植え	-11.5965
ウルス	-11.5965
の一人である	-11.5966
稲荷	-11.5966
納入	-11.5967
年に発売された	-11.5968
だし	-11.597
罪で	-11.5971
前には	-11.5971
受託	-11.5972
フランクリン	-11.5972
曖昧	-11.5973
不詳	-11.5974
改変	-11.5974
▁part	-11.5975
始発	-11.5977
トレイン	-11.5978
総選挙で	-11.5978
進められ	-11.598
スティーブン	-11.5981
に相当	-11.5981
sv	-11.5984
衰え	-11.5985
奨	-11.5987
不調	-11.5987
チョン	-11.5988
ノミネート	-11.5988
アンダーソン	-11.5988
年代後半から	-11.5989
日露戦争	-11.599
与える	-11.599
射殺	-11.5991
big	-11.5991
処刑された	-11.5992
体長	-11.5992
しよう	-11.5992
エルサレム	-11.5993
、1928	-11.5993
川は	-11.5995
としても活動	-11.5996
ヒュ	-11.5998
に到着	-11.5998
ストローク	-11.5999
を構成し	-11.6001
本郷	-11.6002
発見されている	-11.6002
対馬	-11.6002
を前に	-11.6002
つぶ	-11.6002
ータ	-11.6003
箕	-11.6006
アシ	-11.6007
ダンジョン	-11.6008
をやめ	-11.6009
貰	-11.6009
学派	-11.601
に属した	-11.601
レコード会社	-11.6011
当社	-11.6011
展望	-11.6011
島は	-11.6012
調子	-11.6013
次官	-11.6014
穀	-11.6014
卑	-11.6015
公正	-11.6015
工芸	-11.6015
無罪	-11.6016
bro	-11.6016
を建設し	-11.6019
在任	-11.602
理由から	-11.6022
リボン	-11.6023
改名	-11.6023
を繰り返す	-11.6026
染色体	-11.6028
そこには	-11.6028
が使われている	-11.6028
大阪市立	-11.603
オハイオ州	-11.603
チオ	-11.6031
協奏曲	-11.6031
に携わる	-11.6032
勧め	-11.6032
を卒業した	-11.6033
は自分の	-11.6035
と推定される	-11.6035
宣告	-11.6036
和歌	-11.604
tom	-11.604
自分は	-11.6041
ウェイン	-11.6042
zu	-11.6042
エストニア	-11.6042
ッリ	-11.6043
問われ	-11.6044
思う	-11.6045
領内	-11.6046
を除いた	-11.6048
のみであった	-11.605
仮面	-11.605
据え	-11.6051
スターズ	-11.6053
焦点	-11.6054
の為に	-11.6054
集まって	-11.6054
敗と	-11.6054
クジラ	-11.6054
迫る	-11.6054
として扱われ	-11.6055
など多くの	-11.6055
ネック	-11.6056
慕	-11.6056
膨大な	-11.6056
н	-11.6056
に従軍	-11.6058
ハット	-11.6058
本質	-11.6059
▁ac	-11.606
派遣した	-11.6062
歴史的に	-11.6062
いかなる	-11.6063
シアン	-11.6065
拍子	-11.6065
ぐち	-11.6065
ゅ	-11.6066
柔軟	-11.6068
を開く	-11.6069
認められている	-11.6071
制圧	-11.6071
吹き替え	-11.6071
で生まれる	-11.6072
を積極的に	-11.6074
と指摘している	-11.6075
刈	-11.6075
ものとなった	-11.6077
大敗	-11.6077
越え	-11.6077
哺乳類	-11.6079
韻	-11.6079
ヘア	-11.6079
、1929	-11.6079
サポーター	-11.6081
▁上記	-11.6082
舞鶴	-11.6084
荘園	-11.6084
久留米	-11.6087
サッカー部	-11.6087
町駅	-11.6087
はやや	-11.6088
男は	-11.6088
▁詳細は	-11.6088
が認められる	-11.6089
封印	-11.6092
誕生日	-11.6092
実質的な	-11.6092
鴻	-11.6093
参議院議員	-11.6093
音が	-11.6094
回った	-11.6094
キングス	-11.6098
並行	-11.6098
広まった	-11.6098
朋	-11.6098
を増やし	-11.6098
休暇	-11.6098
ようだ	-11.6098
判定勝ち	-11.6099
信託	-11.6099
日本大学	-11.6099
が採用され	-11.61
に加わり	-11.61
予備役	-11.6101
分配	-11.6102
を輩出し	-11.6102
留学生	-11.6105
鼓	-11.6105
、1931	-11.6107
全体に	-11.6107
東北地方	-11.6107
蔵書	-11.6107
資材	-11.6109
曳	-11.6109
カラオケ	-11.6109
餅	-11.6109
院長	-11.611
vis	-11.6111
分断	-11.6111
ホームズ	-11.6112
生殖	-11.6112
出身のプロ野球選手	-11.6113
高雄	-11.6114
好成績	-11.6115
デイリー	-11.6115
債権	-11.6115
モト	-11.6116
早川	-11.6116
世紀前半	-11.6118
ともいえる	-11.6118
national	-11.6118
ナイフ	-11.6118
発掘調査	-11.6118
芸能人	-11.6119
対話	-11.6119
直す	-11.612
位を獲得した	-11.6121
aki	-11.6122
偶	-11.6122
給与	-11.6122
岩手	-11.6122
得点を記録	-11.6123
家具	-11.6123
去った	-11.6124
流派	-11.6124
十字軍	-11.6124
1・2	-11.6124
慎重	-11.6125
から始まる	-11.6125
メイト	-11.6125
立ち上げ	-11.6128
フェロー	-11.6128
ダイヤ改正	-11.6128
終え	-11.6129
始まり	-11.6129
ish	-11.613
文化放送	-11.613
せられた	-11.6131
頸	-11.6132
sim	-11.6135
背後	-11.6135
和名	-11.6137
に含まれ	-11.6137
翅	-11.6137
美子	-11.6139
持っている	-11.614
南北朝時代	-11.614
採集	-11.614
退却	-11.6141
old	-11.6142
▁per	-11.6142
をしており	-11.6143
市生まれ	-11.6143
に設けられた	-11.6143
db	-11.6143
駅伝	-11.6143
となること	-11.6144
eri	-11.6144
下院議員	-11.6144
苦労	-11.6144
е	-11.6146
そうな	-11.6147
ひさ	-11.6147
商事	-11.6147
口から	-11.6148
電機	-11.6148
帰る	-11.6149
になってしまう	-11.6149
倫	-11.6149
テレビジョン	-11.6149
し始めた	-11.6149
北条氏	-11.615
御殿	-11.6151
支え	-11.6151
へ移	-11.6152
アラビア	-11.6152
に分かれる	-11.6153
が主催する	-11.6154
となっていたが	-11.6155
内藤	-11.6156
が低く	-11.6157
されるため	-11.6157
フェニックス	-11.6159
てきたが	-11.6161
デア	-11.6161
河野	-11.6165
▁この後	-11.6165
きわめて	-11.6165
とも言える	-11.6165
つる	-11.6167
こんな	-11.617
pm	-11.617
iss	-11.6171
天明	-11.6172
前橋	-11.6173
フォト	-11.6173
を付けた	-11.6173
開始した	-11.6173
祈り	-11.6174
〔	-11.6174
前部	-11.6176
参画	-11.6176
ジャイアンツ	-11.6177
フェザー級	-11.6177
ーニャ	-11.6177
タイアップ	-11.618
収録された	-11.6181
レギュラー出演	-11.6182
版画	-11.6183
▁des	-11.6184
石田	-11.6184
バスターミナル	-11.6185
ベット	-11.6187
国々	-11.6188
ハンブルク	-11.6188
青少年	-11.6189
定めた	-11.6189
彼女を	-11.6189
デリ	-11.6189
今井	-11.619
立案	-11.6191
新政府	-11.6192
頂上	-11.6192
難波	-11.6193
〕	-11.6194
適用される	-11.6194
アダルト	-11.6195
が必要な	-11.6195
悩み	-11.6196
降水量	-11.6196
理科	-11.6197
を借り	-11.6199
寄稿	-11.62
ばね	-11.6201
を賜	-11.6202
を倒し	-11.6202
▁100	-11.6202
を引き継いだ	-11.6202
sn	-11.6204
倒し	-11.6204
デビューを果たした	-11.6205
として用いられる	-11.6208
▁ここに	-11.6208
南は	-11.6208
ビタミン	-11.6208
外科	-11.6209
行為を	-11.6209
▁具体的には	-11.6209
自分を	-11.621
じゅ	-11.621
アクセント	-11.6211
を教え	-11.6212
ズー	-11.6213
客員教授	-11.6213
のインタビューで	-11.6214
が大幅に	-11.6214
准教授	-11.6215
ピカ	-11.6219
を開発し	-11.6219
名称が	-11.622
リアルタイム	-11.622
宛	-11.6221
int	-11.6221
の意思	-11.6222
直結	-11.6222
タッグ王座	-11.6224
物理的	-11.6224
ティエ	-11.6224
制作の	-11.6226
慣れ	-11.6226
に反対し	-11.6226
なっており	-11.6227
調和	-11.6228
dos	-11.6228
盟	-11.6228
加算	-11.623
:55	-11.6231
ミラ	-11.6231
イヤ	-11.6231
敗れた	-11.6232
割り当て	-11.6232
単発	-11.6232
ミア	-11.6232
hal	-11.6232
工房	-11.6234
出陣	-11.6235
取り上げられ	-11.6235
▁ニューヨーク	-11.6235
日本において	-11.6236
長老	-11.6237
総統	-11.6237
栃木	-11.6238
フランシスコ	-11.624
本書	-11.624
ore	-11.624
イク	-11.624
拒絶	-11.6242
ことで知られる	-11.6242
ye	-11.6242
はずの	-11.6244
ビルマ	-11.6244
合わせた	-11.6245
詳しい	-11.6245
▁1911	-11.6245
に進出した	-11.6246
奥州	-11.6248
わかる	-11.625
じり	-11.625
園芸	-11.6251
宮本	-11.6253
日本の女優	-11.6254
の中で最も	-11.6254
を喫した	-11.6257
総称	-11.6259
かき	-11.6259
が再び	-11.6259
それらを	-11.6259
ように見える	-11.6261
に設立された	-11.6261
まとま	-11.6261
肘	-11.6262
真理	-11.6263
トレン	-11.6263
ていたという	-11.6265
▁|	-11.6268
ママ	-11.6268
暗い	-11.6268
周辺に	-11.6271
初出	-11.6272
擬	-11.6272
停車駅	-11.6273
本家	-11.6274
▁star	-11.6274
自称	-11.6275
居城	-11.6275
出来た	-11.6278
メディ	-11.6279
放送され	-11.6279
ことが可能	-11.628
と出会い	-11.628
ッティング	-11.6281
持っていた	-11.6281
フス	-11.6283
常時	-11.6284
攻撃を受け	-11.6284
鶴見	-11.6285
除籍	-11.6285
年代後半に	-11.6286
ペトロ	-11.6286
グラフィ	-11.6287
npb	-11.6287
▁air	-11.6288
クレア	-11.6289
調査では	-11.6291
発売され	-11.6292
機銃	-11.6292
考えた	-11.6293
後漢	-11.6293
の重要性	-11.6294
に分けて	-11.6295
cv	-11.6296
が参加した	-11.6297
を満たし	-11.6298
フアン	-11.6298
規約	-11.63
貨物列車	-11.6302
高岡	-11.6303
公卿	-11.6304
がち	-11.6308
▁全国	-11.6309
況	-11.6309
物である	-11.631
を取得し	-11.6311
を優先	-11.6313
モロッコ	-11.6313
淀	-11.6313
タイガース	-11.6315
召	-11.6315
たとき	-11.6315
ヴォーカル	-11.6315
ブルックリン	-11.6318
を救う	-11.6319
休刊	-11.632
示されている	-11.6325
改題	-11.6326
に死去した	-11.6326
重ね	-11.6327
拘	-11.6327
ミサ	-11.6327
自宅で	-11.6327
ネパール	-11.6328
月に行われた	-11.6328
平坦	-11.633
民兵	-11.6331
役目	-11.6331
が持つ	-11.6332
ウェルター級	-11.6333
伝えた	-11.6333
みると	-11.6334
通った	-11.6335
エンターテイメント	-11.6336
に住んでいた	-11.6336
アラスカ	-11.6336
対外	-11.6337
群れ	-11.6337
についた	-11.6337
wr	-11.6338
私鉄	-11.634
に沿った	-11.6342
ジーン	-11.6344
グループは	-11.6344
桜井	-11.6345
本文	-11.6345
終了する	-11.6346
ギャング	-11.6348
を指導	-11.6348
地域である	-11.635
ころから	-11.635
生産量	-11.635
平方メートル	-11.6351
ゴロ	-11.6352
自身初の	-11.6352
道の駅	-11.6353
飼い	-11.6353
城壁	-11.6355
cat	-11.6355
表彰台	-11.6357
大学法学部	-11.6358
技術的	-11.6358
ディビシオン	-11.6359
忘れ	-11.6359
プロペラ	-11.6362
劇場で	-11.6362
ミラン	-11.6362
チカ	-11.6363
会会長	-11.6363
上皇	-11.6363
を決定	-11.6364
に分けられ	-11.6365
対称	-11.6365
最新の	-11.6366
日に公開された	-11.6367
から南	-11.6368
原作者	-11.6368
常磐	-11.6368
日までに	-11.6368
撮影した	-11.6369
ルーツ	-11.6371
も行われた	-11.6372
豊臣	-11.6372
董	-11.6373
執筆した	-11.6373
ima	-11.6375
を遂げた	-11.6375
くなり	-11.6376
国有	-11.6377
消失	-11.6377
テクノ	-11.6378
っ子	-11.638
を探す	-11.6381
楚	-11.6382
ロル	-11.6382
織物	-11.6383
プログラミング	-11.6383
バター	-11.6384
なければならなかった	-11.6385
を行っており	-11.6385
を望む	-11.6386
食材	-11.6386
▁ne	-11.6387
連邦軍	-11.6387
百合	-11.6387
繋がり	-11.6387
突起	-11.6388
落とした	-11.6388
つめ	-11.6389
西岸	-11.6389
観戦	-11.639
賜	-11.639
広さ	-11.6391
人の子供	-11.6392
つくば	-11.6392
意味合い	-11.6392
1,500	-11.6392
全英	-11.6392
みどり	-11.6392
がこれ	-11.6393
知る	-11.6393
てきている	-11.6394
立って	-11.6395
現在地	-11.6395
を建設した	-11.6397
陸地	-11.6397
製造業	-11.6397
年に日本	-11.6397
への出演	-11.6398
提供する	-11.6398
近似	-11.6401
柔	-11.6403
台数	-11.6403
gui	-11.6404
不法	-11.6404
モニター	-11.6405
注目を集め	-11.6405
同番組	-11.6406
濁	-11.6407
ローム	-11.641
姿で	-11.641
嶽	-11.641
と共通	-11.6412
王族	-11.6413
豊臣秀吉	-11.6413
フック	-11.6414
フラー	-11.6414
に滞在し	-11.6415
一橋大学	-11.6415
フスキー	-11.6416
カンファレンス	-11.6416
▁time	-11.6416
フォワード	-11.6417
上部に	-11.6418
ミック	-11.642
先進	-11.6421
カツ	-11.6422
シリンダー	-11.6422
濱	-11.6422
尊重	-11.6426
〇	-11.6428
不可欠	-11.6428
研究家	-11.6429
内部の	-11.643
チック	-11.6431
bur	-11.6433
卓球	-11.6433
sb	-11.6433
程度で	-11.6438
悦	-11.6439
を主張した	-11.644
周回	-11.644
グルジア	-11.644
▁帰国後	-11.644
本人が	-11.644
が悪く	-11.6441
短距離	-11.6442
それから	-11.6442
キッ	-11.6444
ا	-11.6445
受賞者	-11.6445
八郎	-11.6446
詐欺	-11.6448
荻	-11.6448
pri	-11.6449
位入賞	-11.6452
明確	-11.6454
汽船	-11.6457
テリー	-11.6458
系電車	-11.6459
ik	-11.6462
戻り	-11.6462
在学中に	-11.6463
鈴鹿	-11.6463
小銃	-11.6464
ハドソン	-11.6465
木星	-11.6465
留守	-11.6467
てゆく	-11.6469
ロビン	-11.647
世界的な	-11.6471
基底	-11.6472
土地を	-11.6473
ドラッグ	-11.6476
団体である	-11.6476
詔	-11.6477
飛鳥	-11.6477
水曜	-11.6477
秋山	-11.6478
髄	-11.6479
が付属	-11.6479
考えて	-11.648
出演し	-11.6481
るほど	-11.6482
占	-11.6485
ージュ	-11.6485
狭義	-11.6485
開いた	-11.6486
国政	-11.6486
原子炉	-11.6486
白山	-11.6488
pon	-11.6489
へん	-11.6489
たまま	-11.6493
ランナー	-11.6493
でしょう	-11.6494
ans	-11.6496
儀礼	-11.6496
が起きる	-11.6496
エージェント	-11.6497
パチンコ	-11.6497
pos	-11.6498
nm	-11.6499
復帰した	-11.6499
ハブ	-11.6499
に代わる	-11.65
したとされる	-11.6501
を入れ	-11.6502
剣道	-11.6503
と呼ばれることもある	-11.6503
トロイ	-11.6503
収蔵	-11.6503
元和	-11.6504
月までに	-11.6507
低地	-11.6507
常設	-11.6508
松尾	-11.651
民俗	-11.651
gro	-11.6513
でプレーした	-11.6513
っき	-11.6513
ことに由来する	-11.6514
其	-11.6515
を残して	-11.6515
ゴシック	-11.6517
まで続いた	-11.6518
塞	-11.6519
を所有し	-11.652
遠い	-11.652
隋	-11.6521
▁“	-11.6521
ヨハネ	-11.6522
ガウ	-11.6523
▁1913	-11.6523
ジミー	-11.6523
折り返し	-11.6524
クリーブランド	-11.6524
固め	-11.6525
肖像画	-11.6528
着任	-11.6528
▁1915	-11.6528
八代	-11.6529
征伐	-11.6529
角川	-11.6531
による日本の	-11.6531
星野	-11.6531
喉	-11.6532
舗装	-11.6532
城下	-11.6532
車として	-11.6532
以北	-11.6533
背面	-11.6533
ユダヤ	-11.6533
近辺	-11.6534
跨	-11.6534
kar	-11.6534
バッグ	-11.6535
足立	-11.6538
村田	-11.6538
から西	-11.6538
あつ	-11.6539
トランプ	-11.6539
応答	-11.6539
に特化した	-11.654
摩擦	-11.6541
気体	-11.6541
ミヤ	-11.6544
が確認されている	-11.6545
を出して	-11.6545
に建てられた	-11.6546
加茂	-11.6546
松原	-11.6546
ピック	-11.6547
民謡	-11.6548
がみ	-11.6549
music	-11.6549
まんが	-11.6549
執政官	-11.655
スティーヴン	-11.655
位を記録した	-11.6551
に関する研究	-11.6551
と思われ	-11.6551
sho	-11.6551
建てられ	-11.6552
本願寺	-11.6553
吹奏楽	-11.6553
掲示板	-11.6553
興行収入	-11.6554
在籍していた	-11.6554
今も	-11.6554
関係にある	-11.6555
人々に	-11.6555
▁女性	-11.6555
成績を残し	-11.6557
高く評価され	-11.6557
奇妙な	-11.6557
断片	-11.6557
ホークス	-11.6557
リリーフ	-11.6557
けんりつ	-11.6559
踊	-11.656
▁スペイン	-11.656
聴取	-11.6561
▁同様に	-11.6561
社殿	-11.6561
エンディングテーマ	-11.6561
証券取引所	-11.6564
挑	-11.6566
パト	-11.6566
▁放送時間は	-11.6566
喫煙	-11.6567
単式ホーム	-11.6567
キャッチ	-11.6567
その間に	-11.6569
kr	-11.657
騒ぎ	-11.6571
原町	-11.6572
フライ級	-11.6572
tis	-11.6574
がつく	-11.6575
ジャーナル	-11.6575
たろう	-11.6576
ベネ	-11.6576
化している	-11.6577
四方	-11.6577
イリノイ州	-11.6577
を兼任	-11.6579
android	-11.6579
[...]
